02
00
00
00
00
01
ff
ff
00
00
01
ff
00
ff
ff
00
ff
01
01
ff
00
ff
ff
fc
00
00
ff
00
00
02
02
00
00
00
01
ff
01
00
01
01
01
ff
00
00
03
02
01
01
00
01
fe
00
01
01
00
00
00
ff
ff
01
02
00
fe
00
01
00
01
ff
ff
ff
ff
02
00
ff
fe
fe
00
01
02
00
ff
ff
00
01
01
01
ff
ff
00
01
01
00
00
ff
ff
00
00
ff
ff
ff
00
ff
00
00
00
00
00
00
00
01
00
00
ff
00
00
00
00
00
00
ff
00
00
00
00
00
00
00
00
00
00
00
00
00
00
00
00
00
00
00
00
00
00
ff
00
00
00
00
01
00
00
01
00
00
ff
00
01
01
01
00
ff
00
00
00
00
01
ff
00
00
ff
ff
fe
00
00
00
ff
00
fe
00
01
ff
ff
00
00
fe
00
00
00
01
01
00
ff
01
01
00
01
fe
01
00
00
00
02
02
ff
02
ff
ff
ff
fe
00
00
ff
00
00
ff
fe
ff
00
00
00
00
00
ff
ff
ff
fe
00
01
fe
fe
ff
01
01
01
00
00
00
01
00
ff
00
01
ff
ff
00
fe
01
00
01
ff
00
00
00
00
00
01
01
01
ff
00
00
00
00
ff
ff
fe
ff
01
fe
00
00
01
ff
01
fe
ff
ff
01
ff
00
01
fe
ff
ff
00
01
02
03
00
ff
ff
00
01
01
fe
01
00
00
fe
fd
00
01
00
01
01
ff
fe
fe
fe
ff
00
ff
fe
ff
00
00
00
01
fd
ff
fe
00
02
00
01
ff
00
ff
00
01
00
00
00
00
00
02
02
00
fe
00
00
ff
01
00
00
01
01
01
00
01
00
02
fe
00
01
01
01
00
ff
fe
ff
01
01
00
ff
ff
fd
00
01
00
00
00
fd
ff
00
00
ff
ff
02
ff
00
00
01
ff
ff
00
ff
00
00
01
02
00
00
01
ff
01
01
01
02
00
ff
ff
fe
01
01
00
00
00
01
00
00
ff
ff
01
ff
01
01
00
01
00
01
00
01
01
04
00
fe
00
ff
ff
02
00
fe
00
00
00
01
01
00
00
00
ff
01
00
00
00
00
fe
ff
00
00
00
ff
ff
ff
ff
ff
02
00
ff
00
00
00
00
00
fc
fe
ff
00
ff
00
01
fe
01
01
00
01
01
ff
ff
00
00
01
01
00
ff
01
01
ff
02
fe
01
00
03
01
01
00
00
00
ff
01
01
02
01
00
00
fe
ff
00
02
01
00
00
fd
00
01
01
ff
00
fd
fe
ff
02
00
ff
00
ff
ff
00
01
02
01
00
00
00
00
00
01
ff
00
00
00
02
02
02
01
00
00
01
00
02
00
01
00
00
00
fd
00
01
00
01
00
01
fe
00
00
ff
ff
00
ff
01
01
00
ff
00
00
ff
01
00
ff
00
00
00
00
02
ff
ff
01
ff
00
00
00
fe
01
00
00
01
00
00
fe
ff
ff
ff
ff
00
00
fe
fe
ff
00
00
00
ff
fe
ff
00
01
00
ff
ff
ff
ff
00
00
01
01
00
00
00
01
01
ff
00
00
00
00
01
00
00
00
02
01
01
01
00
00
ff
fd
01
00
00
00
ff
00
ff
ff
00
00
00
ff
01
00
01
00
00
fe
fe
00
00
ff
00
00
00
fe
00
00
00
ff
00
ff
00
00
00
ff
00
ff
00
01
ff
01
01
00
00
ff
00
ff
ff
01
01
01
fe
ff
00
ff
01
03
02
00
ff
ff
00
02
01
01
01
ff
00
ff
00
fe
00
01
00
00
01
01
ff
00
01
fe
ff
ff
ff
01
ff
00
00
00
ff
00
01
01
00
00
ff
00
01
01
00
00
ff
fe
ff
01
00
00
ff
ff
fe
00
01
01
ff
fe
00
fe
ff
00
00
fe
01
ff
ff
00
00
00
ff
00
ff
ff
ff
ff
00
00
00
