00
ff
ff
ff
ff
fe
fd
01
01
01
00
00
00
00
00
03
02
00
00
01
00
01
00
00
fe
00
ff
00
00
ff
01
fe
00
00
00
00
fd
fd
00
00
ff
ff
00
fe
ff
01
01
01
00
00
ff
ff
00
ff
ff
00
00
01
01
01
00
00
00
ff
01
02
02
01
00
fe
00
01
01
ff
01
ff
00
01
00
01
fe
00
01
00
00
ff
ff
fe
ff
ff
00
01
00
ff
ff
ff
ff
ff
00
00
ff
00
ff
ff
00
00
00
00
00
00
ff
00
00
00
00
ff
00
00
00
00
00
00
00
00
00
00
ff
00
00
00
ff
00
00
00
00
ff
00
00
00
00
00
ff
00
00
00
00
00
00
00
fe
ff
ff
ff
ff
00
00
00
00
00
00
fe
01
01
02
00
01
00
ff
00
ff
00
00
00
00
ff
00
ff
00
ff
ff
ff
ff
00
00
00
01
00
00
00
00
00
00
01
01
01
fe
00
00
ff
00
00
ff
00
02
00
00
ff
ff
ff
ff
00
00
01
01
ff
00
00
01
02
02
ff
ff
00
ff
00
02
01
ff
00
01
ff
ff
00
ff
ff
ff
ff
ff
ff
00
00
00
ff
fe
ff
00
ff
ff
fe
ff
ff
00
00
01
01
00
ff
01
00
01
01
ff
00
00
ff
fc
00
ff
ff
00
00
00
fe
00
ff
01
00
ff
ff
ff
00
ff
00
00
00
ff
01
ff
00
ff
00
01
00
fe
00
ff
00
ff
00
00
00
00
01
01
00
ff
ff
fd
00
01
01
00
00
00
00
01
fe
ff
ff
00
00
ff
00
ff
00
ff
00
01
ff
01
00
fe
00
00
00
ff
00
00
00
00
00
01
00
00
00
ff
fe
ff
fc
fd
ff
00
00
00
01
01
ff
01
00
00
01
01
01
fc
02
ff
fe
01
01
00
00
00
ff
ff
00
00
02
00
00
ff
00
00
00
ff
ff
ff
01
01
02
00
02
00
00
fe
00
fe
fd
ff
00
01
00
fd
fa
ff
01
01
ff
fe
fc
00
01
01
01
ff
ff
01
03
00
00
01
00
02
03
01
00
01
00
00
01
02
01
00
00
00
00
00
03
01
00
ff
ff
00
fc
ff
00
00
ff
00
00
00
00
ff
ff
fe
fe
00
01
00
00
00
01
01
01
ff
ff
ff
00
00
fe
ff
ff
00
00
01
00
00
01
00
ff
00
01
ff
00
fe
fe
00
ff
00
01
ff
ff
00
fd
fe
ff
01
00
00
00
02
fe
fd
00
00
01
00
00
01
01
ff
ff
01
00
ff
01
02
01
00
00
ff
ff
00
01
00
00
00
fe
00
01
01
ff
00
ff
00
00
00
00
01
00
00
00
fe
fc
ff
ff
ff
00
fe
ff
00
00
00
01
01
00
00
00
01
01
00
ff
00
00
01
00
00
ff
00
01
03
00
00
00
00
00
fe
01
01
00
00
ff
00
00
02
01
01
01
01
00
00
00
00
00
00
00
00
01
02
03
02
01
00
00
01
01
01
01
01
00
01
01
00
00
00
00
ff
ff
00
00
ff
01
01
00
ff
ff
fe
ff
00
ff
00
00
ff
ff
ff
ff
00
ff
00
00
ff
fd
ff
ff
00
00
ff
ff
ff
00
00
00
00
00
00
00
00
01
ff
03
ff
ff
00
00
00
fe
02
ff
00
ff
01
01
00
ff
00
00
00
00
01
fe
ff
00
01
00
01
ff
00
00
ff
ff
ff
fe
ff
fe
00
00
00
ff
00
00
ff
00
ff
ff
01
01
01
01
ff
00
01
00
ff
00
01
00
02
01
00
02
01
00
01
00
ff
00
01
ff
ff
01
00
00
00
01
00
00
00
00
ff
fe
fe
ff
ff
00
00
00
00
01
00
ff
ff
00
00
00
01
01
ff
00
ff
fe
ff
01
01
ff
01
00
ff
ff
01
00
fe
ff
01
00
00
00
00
ff
ff
01
ff
00
00
00
ff
