00
01
00
01
01
00
00
00
ff
00
00
00
00
00
01
02
00
00
00
ff
ff
01
01
00
01
00
ff
ff
01
fe
fe
01
00
00
ff
fd
fd
00
00
02
01
00
00
ff
fe
fb
ff
01
ff
00
00
01
01
02
00
ff
00
03
02
ff
00
fe
ff
00
01
01
01
00
fd
00
00
01
02
ff
00
00
00
ff
ff
ff
01
00
01
02
00
ff
00
00
01
02
00
00
00
00
ff
01
00
00
00
ff
00
00
ff
00
00
00
ff
00
01
00
00
00
ff
00
00
00
00
00
00
00
ff
00
00
ff
00
00
00
00
00
00
00
00
00
00
ff
00
00
00
00
00
00
00
ff
ff
00
00
00
00
00
01
ff
01
ff
00
00
ff
01
00
01
00
ff
00
fe
ff
00
01
00
fd
00
ff
ff
ff
ff
00
fd
00
00
01
00
ff
ff
fe
00
00
00
ff
00
ff
00
00
ff
ff
ff
00
ff
00
00
00
ff
00
fd
fe
00
00
02
00
01
00
fe
00
00
01
00
00
ff
ff
ff
ff
01
00
ff
ff
01
01
01
00
00
01
00
01
01
01
ff
00
00
00
01
00
00
01
00
00
00
00
00
ff
00
00
01
ff
fe
00
00
ff
00
00
02
01
ff
00
fe
ff
01
02
01
fd
ff
00
ff
00
ff
fe
ff
01
01
00
ff
fe
00
03
01
01
00
00
01
02
ff
00
01
00
00
00
00
01
00
01
01
01
00
00
ff
00
ff
00
00
00
00
fd
ff
ff
00
00
00
ff
fe
01
ff
fe
00
ff
ff
01
00
ff
fe
00
01
01
01
01
ff
00
00
02
02
01
ff
ff
fe
01
01
01
ff
00
ff
00
00
00
00
00
00
00
01
00
fe
ff
fd
00
ff
ff
ff
fe
00
02
00
00
00
00
01
01
01
01
00
01
01
01
00
02
00
01
00
01
ff
fd
01
ff
00
00
fd
fe
fe
00
ff
ff
ff
01
fe
00
01
ff
00
01
fd
fd
ff
01
01
01
ff
02
00
ff
00
02
02
fe
ff
01
01
00
ff
00
00
02
00
ff
ff
fe
00
01
ff
fe
ff
00
00
01
fe
fe
ff
01
00
00
00
00
00
00
00
00
00
ff
00
00
00
00
ff
ff
ff
00
00
ff
00
ff
01
00
00
00
00
01
01
00
ff
00
00
00
00
ff
ff
ff
01
00
01
00
00
ff
01
00
00
00
ff
fe
00
ff
ff
ff
fe
fe
00
00
ff
ff
00
01
00
00
ff
ff
fe
00
01
01
01
00
00
ff
ff
00
00
00
00
01
01
ff
ff
fe
01
00
01
01
00
00
01
01
ff
ff
ff
ff
00
00
00
00
00
00
01
fe
00
02
00
02
ff
ff
00
00
01
00
00
ff
00
ff
00
00
00
fe
fb
00
01
00
00
00
fe
ff
01
00
ff
fe
00
00
fe
ff
ff
ff
ff
00
fe
fc
fe
fe
fe
ff
00
01
01
03
00
00
00
00
01
01
01
ff
fe
00
00
01
01
02
ff
fe
00
00
00
00
ff
fe
00
01
00
ff
ff
00
00
02
01
00
00
00
00
02
01
01
00
00
01
00
01
00
ff
00
00
ff
01
ff
ff
01
ff
00
01
01
00
ff
00
02
01
00
00
00
00
00
fe
00
ff
ff
00
01
ff
00
01
02
02
01
ff
00
01
00
00
00
01
ff
01
00
00
00
ff
ff
ff
00
00
00
00
ff
01
01
00
00
ff
00
ff
fe
00
01
ff
00
00
00
fe
01
02
01
02
01
01
01
01
02
01
01
02
01
02
01
01
00
00
01
01
ff
ff
00
fc
fc
ff
fc
fc
01
00
00
00
01
01
00
ff
ff
00
fe
01
ff
00
00
00
00
00
00
ff
ff
00
ff
ff
ff
fe
ff
00
00
00
01
01
01
01
00
01
01
01
01
00
01
01
00
00
00
ff
00
00
ff
ff
00
