fe
00
00
01
00
ff
00
fe
00
00
00
00
01
01
00
fe
00
00
00
01
00
00
00
01
01
ff
00
ff
00
fd
fd
00
01
01
00
fd
00
00
00
00
00
00
00
00
ff
fc
fe
ff
00
00
01
01
00
ff
01
00
ff
fe
00
ff
ff
01
01
01
ff
fe
fe
00
00
00
00
ff
fe
ff
00
01
00
01
00
ff
00
00
ff
00
01
ff
fe
00
00
ff
00
01
01
01
01
00
00
00
00
ff
00
00
00
00
00
00
00
00
00
ff
00
00
ff
00
00
00
00
00
00
ff
00
00
ff
00
00
00
01
01
00
ff
00
00
00
00
00
00
ff
00
00
00
00
00
00
ff
00
00
00
ff
01
00
00
ff
00
00
ff
00
00
fe
00
ff
01
00
ff
ff
00
ff
00
01
00
00
01
02
ff
ff
01
00
ff
00
00
01
01
01
ff
00
00
01
00
01
00
00
01
00
fe
ff
00
01
00
00
01
ff
00
01
01
fe
01
01
01
01
00
00
00
ff
ff
00
02
02
00
00
fe
ff
ff
02
01
00
00
00
00
00
00
00
ff
00
ff
ff
00
01
00
ff
ff
ff
00
00
01
01
fe
ff
00
ff
01
01
ff
00
ff
00
ff
00
00
01
01
00
01
00
01
00
00
ff
01
01
02
02
00
fe
ff
00
01
01
00
01
02
00
00
01
00
00
00
fe
ff
00
01
00
01
00
01
ff
ff
00
00
00
00
01
00
00
00
00
00
01
01
02
00
00
00
00
00
01
00
00
01
01
00
00
00
ff
00
ff
00
ff
ff
00
ff
00
01
00
00
ff
00
ff
fd
01
01
01
00
00
02
00
00
00
00
ff
ff
ff
ff
00
00
00
ff
00
ff
01
01
00
ff
ff
00
00
00
01
00
00
00
00
ff
00
01
02
00
ff
ff
fe
00
00
01
ff
ff
ff
00
00
00
00
ff
ff
ff
00
00
01
00
00
01
00
00
00
01
02
01
00
ff
ff
00
ff
fe
fe
ff
00
00
01
00
fe
fe
00
00
00
01
01
01
ff
ff
00
ff
00
fd
ff
ff
00
00
00
ff
ff
ff
00
00
00
00
ff
01
00
00
ff
00
ff
ff
00
00
00
01
01
00
00
00
00
01
00
00
00
00
01
01
00
01
ff
00
fe
00
00
00
00
01
01
ff
01
01
00
ff
00
00
fe
01
00
00
ff
ff
01
00
00
00
ff
01
fe
00
ff
ff
ff
ff
00
02
01
01
00
00
00
01
00
00
00
01
00
ff
fe
ff
00
00
00
01
00
00
01
00
01
00
01
01
ff
fe
00
00
01
01
ff
00
ff
00
00
00
00
ff
01
ff
ff
00
ff
01
ff
ff
ff
ff
00
01
00
ff
00
00
01
00
ff
00
00
00
00
01
00
00
01
01
ff
00
00
00
ff
ff
ff
01
01
01
00
ff
ff
ff
01
00
00
00
00
00
00
ff
00
00
ff
00
ff
00
fe
01
01
00
00
00
ff
ff
ff
00
01
01
00
ff
01
01
00
00
ff
fe
00
ff
00
00
01
00
00
00
00
ff
00
00
00
00
00
00
01
00
00
00
ff
ff
00
ff
ff
ff
01
ff
ff
00
ff
ff
00
01
01
00
00
00
00
00
00
01
01
01
00
01
00
01
03
02
ff
ff
ff
ff
00
00
ff
ff
00
00
00
00
ff
00
00
00
ff
00
01
00
01
00
00
00
00
01
01
01
00
00
00
01
00
00
ff
ff
ff
ff
00
00
00
00
02
fe
fe
01
01
01
01
ff
fe
ff
01
ff
fe
fe
ff
ff
ff
ff
fd
fb
fc
fd
ff
00
00
00
00
00
ff
ff
00
00
00
00
00
ff
ff
ff
01
00
00
00
00
ff
01
00
00
00
00
00
00
01
01
01
01
00
ff
fd
00
00
00
01
ff
ff
01
00
ff
ff
00
01
00
00
00
