00 fe fe 02 02 fe 00 02 02 02 00 fe 03 02 03 ff 02 03 ff fe ff 01 ff fe 01 01 02 ff fd fe 02 00 fe 00 00 00 02 ff fd 03 03 01 01 02 03 ff fe ff 01 00 fe 01 00 01 fe fe 01 01 fc fe 00 01 00 01 ff fe 00 00 fe 00 01 00 01 03 01 fd ff fc 00 01 00 02 00 ff fc fc fc ff 00 02 02 02 02 00 00 fd fe ff 00 02 02 03 ff 01 ff fd fd fe 01 01 ff fd fe fe fe ff 01 01 02 01 fe 00 fd 00 00 01 02 02 03 02 02 01 fe fd fa 00 01 02 fe ff ff 00 01 00 ff ff ff 00 ff 00 ff 00 00 00 ff ff 00 ff 00 00 00 ff ff ff ff ff ff 00 00 00 00 00 00 00 00 ff ff 00 00 00 00 ff ff ff 00 01 01 ff 00 fe ff 00 00 ff ff ff 00 01 ff ff ff ff ff ff ff 00 00 00 ff ff 00 00 ff ff ff 00 00 02 ff ff 01 00 ff 01 00 00 03 01 fe 02 02 fd ff 01 02 00 fd 00 01 ff ff 00 ff ff 00 00 fe 00 ff 00 01 00 00 02 00 00 03 02 fe 01 01 01 01 00 ff 01 ff 00 00 01 00 fb fd 00 fe fb 01 ff fe 00 01 ff 00 01 00 ff 01 01 ff 00 01 01 02 00 00 fe ff fd ff ff 00 01 00 00 fd 00 ff 00 00 01 01 00 01 ff ff fe ff 00 02 01 02 02 00 fe fe 00 00 00 01 00 fe ff 01 ff 01 00 02 02 00 fe fd 00 ff fd 00 ff 02 02 05 03 ff ff 00 00 02 01 01 01 fe fe 00 02 00 fd 01 01 ff 00 00 fe 04 04 fd 00 05 ff ff 01 02 01 fd fe 01 01 fd ff 01 00 01 00 fc 00 ff fd 00 00 ff 05 02 fe 02 03 ff ff 01 01 01 00 fd 01 00 ff ff 01 02 00 fe ff 01 ff fe 00 ff 00 01 ff fe 00 ff fe 00 00 01 ff ff 01 03 03 fc fe 00 01 00 ff 00 04 02 fb fd ff ff fd fd 03 02 00 fe 02 01 ff 00 fe 01 01 01 fe 00 00 02 00 ff 01 02 03 fc fd 00 00 00 fe 01 00 01 fe ff 00 ff fc ff 04 00 ff 00 05 03 ff 00 ff ff 01 00 fd ff ff fe 01 00 00 00 01 01 01 ff fe fd ff ff ff 00 00 01 01 ff 00 01 00 ff 01 00 00 00 00 ff 02 fe 01 01 01 01 01 ff fe 01 fd 00 02 00 02 01 fe 01 03 ff 00 02 01 01 ff 00 fd fc fd fa fc fb fb fe ff 00 03 00 02 01 01 00 00 02 00 fd 02 fe 00 00 fe 03 03 02 fe 03 00 fb 00 ff 01 02 00 ff 02 fe 00 00 fe 03 03 01 fe 02 fe fe 00 fb 01 02 01 fe 01 ff fd ff fe 01 02 ff fd 01 fe ff ff fd 02 fe ff fe 00 ff ff 01 ff fd 03 00 ff 04 ff ff 00 fc 02 00 ff fe 00 01 02 ff 00 00 01 00 01 ff 02 02 ff fe fd 01 00 ff 00 ff ff ff 01 01 ff 01 01 ff 00 ff 00 01 01 02 01 01 01 04 01 fe fd 00 01 01 fe 00 ff 00 01 00 00 fe fd 00 00 02 fe ff 03 04 00 01 ff ff fe ff 00 ff 01 fe 00 01 fd 00 01 fd ff 00 fd fe 03 01 01 04 ff ff 05 00 01 01 ff 01 01 fe 00 00 01 ff 01 fd ff 01 fc 00 00 fe 00 02 fe 00 04 fe ff 03 00 00 01 fe 01 00 fd 00 01 00 fe fd fe fc f9 ff fc fa 00 00 02 fd 01 02 fd 00 01 01 01 ff ff 01 fe 01 ff ff fe 02 01 00 02 00 01 01 01 01 01 fe 01 00 fd 00 ff fe 00 02 00 02 01 fe 02 fe 00 ff 01 ff fe 01 ff 00 ff 00 01 02 ff 02 00 fe 02 fe 00 fc fd 00 fb fd ff fd ff 00 00 03 ff 01 02 fd 02 ff ff 02 02 02 ff 00 02 ff ff fe 02 01 00 ff fe fd ff ff fd 00 00 ff 00 01 02 ff ff 00 01 00 ff 00 01 02 fe ff ff 02 01 01 02 01 01 ff ff fc 01 01 01 ff 01 02 fe ff fe ff fe fe 00 02 02 00 02 01 01 01 01 ff 01 01 fe 00 fe 01 00 ff 00 ff 00 01 00 fe fc fe 01 ff 01 01 02 01 02 00 01 01 00 00 00 00 00 00 00 01 02 02 01 ff 00 ff 00 fe fd 00 ff 02 00 01 01 ff 01 02 00 02 00 00 ff ff ff fc 00 01 fc ff 02 ff 01 03 00 02 00 02 01 ff ff fe ff ff fe 02 ff 02 02 ff 02 00 fe fd fd fc fe fd fe 01 00 fe fe fd 00 01 03 01 01 01 fe fe fb 00 ff 03 ff 01 02 fd ff ff fe 00 ff ff 01 00 ff fe fe ff 00 04 ff 02 01 01 00 fd 00 ff 02 fe ff 01 ff ff fe fe 00 01 00 03 02 00 00 00 00 ff ff 00 01 00 fe fe fe ff ff 02 ff ff 01 ff 01 01 00 00 ff 01 ff fe fe 01 01 01 01 01 00 ff 01 ff ff ff 00 00 02 02 01 01 01 01 02 01 01 ff 01 00 ff fc fb 00 fe fd ff ff ff 01 00 01 01 00 00 00 01 00 00