ff
00
00
ff
00
00
00
00
00
00
00
ff
ff
ff
fd
fe
00
00
00
ff
ff
01
03
01
01
01
01
00
00
02
00
00
00
00
01
01
00
00
00
00
00
01
00
ff
fe
01
fe
ff
00
00
00
00
00
00
01
00
00
ff
fc
01
02
02
02
fe
ff
ff
01
02
02
01
ff
01
01
01
01
00
02
00
01
01
00
00
ff
01
00
01
01
00
00
ff
ff
00
00
01
00
00
00
01
00
00
00
00
00
00
00
ff
00
00
00
00
00
00
00
00
00
01
ff
00
00
01
00
00
00
00
00
00
ff
00
00
ff
00
00
00
00
ff
00
00
00
00
00
ff
00
00
ff
00
00
00
ff
ff
ff
00
01
00
00
00
00
00
ff
ff
ff
00
ff
01
01
00
ff
fd
00
fe
01
01
00
01
01
01
00
00
00
00
01
01
00
00
00
01
00
00
00
02
00
ff
ff
ff
00
fe
02
00
00
00
01
02
01
00
fe
ff
ff
00
01
02
01
fe
ff
ff
ff
00
00
00
ff
01
00
01
ff
fe
00
01
00
00
00
ff
ff
ff
ff
01
01
00
00
00
00
01
01
00
01
00
00
02
ff
ff
00
00
01
00
00
00
01
02
ff
fe
fd
01
00
00
01
ff
ff
ff
02
ff
00
00
00
00
01
04
00
00
00
00
00
ff
00
00
00
00
ff
00
00
ff
00
ff
00
00
00
ff
02
00
ff
ff
00
01
ff
00
ff
00
00
00
00
00
00
fe
00
00
00
01
00
01
fe
00
00
00
01
01
01
01
01
01
00
00
00
00
00
00
00
00
fe
ff
01
fe
00
02
01
ff
fe
ff
00
fe
00
00
00
00
00
01
01
01
00
02
01
03
00
00
00
ff
ff
00
00
fe
ff
00
00
ff
ff
00
ff
ff
ff
01
00
ff
00
00
ff
fe
00
00
02
ff
00
00
fd
ff
01
02
00
00
00
ff
ff
01
01
01
00
ff
ff
00
01
01
ff
ff
ff
00
ff
fd
ff
ff
00
fe
fe
01
fc
fe
ff
01
fe
00
00
ff
ff
00
01
02
00
00
01
01
00
00
01
fe
ff
01
01
00
ff
fe
fe
00
00
00
01
ff
00
00
00
01
ff
ff
fd
ff
ff
01
00
00
01
00
00
01
01
ff
01
ff
00
00
00
00
00
00
ff
01
00
01
00
00
01
01
ff
ff
01
01
00
00
00
00
00
00
01
02
01
00
01
01
01
02
ff
fe
00
00
01
01
01
fe
ff
00
fe
00
01
01
01
ff
01
ff
ff
ff
ff
00
ff
00
00
00
fe
fd
ff
02
00
00
00
fe
fe
ff
00
00
00
00
fd
fd
00
01
00
00
ff
ff
00
ff
00
ff
00
ff
00
ff
fe
fe
ff
00
ff
ff
00
ff
ff
00
00
00
ff
00
00
00
01
00
03
01
01
01
01
00
00
00
00
00
01
00
01
00
00
00
00
00
00
00
ff
ff
fe
01
02
01
01
ff
ff
00
01
02
02
01
00
01
01
01
01
01
01
01
01
00
00
00
fe
00
ff
01
00
00
00
ff
00
01
00
00
00
00
ff
01
00
00
fd
fe
ff
01
ff
00
ff
01
01
00
01
ff
fd
00
ff
00
ff
ff
00
00
00
ff
00
fe
fe
00
00
ff
fe
00
00
01
00
00
00
00
00
01
01
00
01
00
01
01
01
00
01
00
00
00
ff
00
ff
02
00
00
00
00
00
01
01
ff
ff
00
01
01
00
ff
fe
ff
00
00
fd
ff
00
00
00
ff
00
00
ff
00
00
01
01
01
01
03
ff
ff
fe
00
03
02
02
00
00
00
00
00
00
fe
ff
ff
00
00
ff
00
01
02
ff
00
01
00
00
00
01
ff
fe
00
ff
fe
ff
00
fe
ff
ff
00
00
01
00
00
fe
ff
00
00
00
01
00
ff
01
00
01
01
00
