00
01
00
00
fa
ff
ff
ff
00
00
00
00
00
00
00
fe
01
01
ff
01
00
ff
ff
00
00
00
00
ff
fe
01
00
fe
00
ff
00
00
00
01
00
00
01
02
00
01
fe
ff
00
fd
fe
00
00
02
00
fe
00
ff
01
00
fe
ff
00
00
01
00
ff
01
01
ff
ff
00
ff
01
02
ff
01
00
fe
00
00
00
ff
00
00
01
fe
00
00
00
00
ff
00
00
ff
00
00
00
00
01
ff
00
ff
01
ff
00
ff
01
ff
01
01
ff
00
00
00
00
00
ff
ff
01
01
01
01
00
00
ff
00
01
01
03
01
fd
00
00
02
00
fe
ff
00
01
ff
fe
00
00
01
00
00
fe
ff
ff
ff
01
00
01
00
01
fe
00
00
ff
00
01
00
ff
02
fd
ff
01
00
01
00
00
00
00
01
00
00
00
ff
fe
01
00
00
01
ff
ff
00
01
00
ff
00
01
fe
00
ff
01
00
fd
01
ff
01
00
ff
00
00
01
01
ff
ff
01
00
00
00
ff
00
fe
ff
00
01
00
ff
01
00
00
fe
02
01
00
00
02
02
fc
01
00
fe
01
ff
01
02
ff
00
ff
ff
01
01
00
00
00
ff
00
00
00
01
00
00
ff
00
00
01
ff
00
00
00
ff
ff
00
ff
01
fe
00
fe
00
ff
fe
ff
00
00
ff
fe
ff
fe
00
01
fe
00
02
fd
fe
ff
00
ff
ff
00
ff
00
00
ff
01
00
00
00
01
ff
01
00
01
00
fd
00
01
ff
00
00
fe
01
fe
00
ff
01
00
00
00
fe
00
00
ff
01
00
00
ff
00
ff
00
ff
00
01
01
ff
00
00
01
01
00
00
ff
ff
00
01
00
00
ff
00
00
00
00
ff
02
01
00
00
ff
ff
00
01
00
03
ff
ff
ff
ff
01
01
ff
00
00
ff
00
01
00
fe
01
01
00
ff
00
00
fd
ff
ff
00
00
00
00
ff
00
00
01
00
fe
00
01
02
01
00
00
ff
ff
00
00
00
fd
00
00
00
00
00
00
00
ff
fe
ff
00
ff
ff
00
00
00
fe
00
03
00
ff
00
01
ff
01
00
fe
00
ff
ff
01
01
00
01
ff
00
ff
00
ff
00
01
00
ff
02
01
00
01
01
ff
ff
01
00
00
ff
ff
03
00
00
ff
00
01
00
ff
00
00
00
ff
ff
fc
00
00
00
00
00
00
00
01
00
00
ff
fe
01
ff
ff
ff
01
02
fe
fd
01
00
01
00
ff
01
fe
00
00
01
01
01
03
ff
00
00
01
00
fe
00
00
01
ff
01
00
ff
02
00
00
01
00
01
ff
ff
00
ff
01
00
ff
ff
00
ff
01
ff
fe
ff
00
01
01
00
ff
01
00
00
00
00
01
00
00
ff
00
00
00
00
00
00
00
00
ff
00
ff
ff
02
00
ff
fe
00
ff
ff
00
00
00
ff
ff
00
fc
00
01
00
02
00
fc
00
01
00
00
00
fe
ff
01
00
01
00
01
00
ff
01
01
00
00
03
00
00
ff
00
00
03
ff
fe
ff
00
00
02
01
fe
ff
fe
00
01
00
00
01
00
ff
01
ff
00
01
01
00
00
00
00
00
ff
00
01
00
00
01
02
00
00
fe
ff
00
01
00
ff
00
00
00
00
00
ff
00
00
00
00
ff
00
ff
ff
00
00
01
01
01
01
01
ff
00
01
ff
01
00
00
ff
00
00
01
00
00
ff
00
01
00
00
01
ff
01
fe
00
00
ff
01
ff
fe
01
01
01
00
01
00
01
02
00
00
ff
00
00
00
00
ff
00
00
00
fe
fe
01
fd
00
ff
00
00
ff
00
00
01
fe
01
01
fe
00
fd
00
fe
00
ff
ff
02
01
01
00
01
ff
00
fd
ff
ff
00
00
00
00
01
00
00
00
00
ff
01
ff
ff
00
00
00
ff
01
00
00
02
00
01
01
ff
00