00
01
00
01
fe
02
fe
fc
00
01
00
00
00
00
00
00
00
ff
01
ff
fe
ff
fe
00
00
00
00
01
00
ff
ff
01
ff
00
fe
01
ff
00
01
00
fe
ff
00
00
ff
00
01
00
ff
00
00
00
ff
00
fd
ff
00
00
00
01
ff
fe
00
00
ff
ff
00
00
00
00
01
00
00
fc
ff
00
ff
00
00
ff
01
00
00
01
ff
ff
01
ff
ff
00
00
00
00
01
01
00
00
01
00
fe
00
fe
00
01
ff
fe
ff
00
fe
fe
fd
00
fe
00
ff
01
02
00
02
01
01
ff
00
ff
00
00
ff
ff
00
00
00
00
ff
01
01
00
00
ff
00
ff
ff
00
00
01
00
00
00
ff
01
ff
00
01
ff
00
fe
00
ff
01
00
00
00
ff
02
00
ff
02
00
00
00
ff
00
ff
00
ff
00
00
00
00
00
01
00
00
ff
02
01
00
01
00
ff
ff
02
00
00
02
01
fd
ff
fd
02
02
00
00
00
00
00
ff
ff
00
ff
fe
ff
fe
00
00
fe
fc
00
01
fe
00
00
01
00
01
00
ff
00
00
02
01
01
fe
ff
01
01
00
00
00
02
00
00
00
fe
00
ff
00
ff
ff
00
00
00
01
ff
01
01
fe
fe
00
ff
01
ff
00
00
fd
00
ff
00
01
01
fe
02
ff
00
00
01
ff
01
ff
ff
00
00
01
02
00
01
ff
fe
00
00
00
01
02
ff
00
ff
00
ff
01
00
01
00
fe
01
00
00
fc
01
fe
03
01
ff
01
00
01
00
00
00
01
02
ff
ff
01
01
00
00
01
00
00
00
00
00
ff
ff
00
fd
01
01
00
fe
02
01
ff
02
fd
fd
00
01
ff
fe
00
00
01
01
ff
00
00
00
fe
00
01
01
00
00
01
00
01
01
01
00
01
ff
ff
01
ff
fd
00
ff
00
ff
00
01
00
00
00
01
01
00
00
ff
00
01
01
00
ff
01
00
01
00
02
01
00
00
00
00
00
00
00
01
ff
00
00
ff
01
ff
ff
ff
01
00
01
01
00
00
ff
00
01
00
fe
01
ff
ff
00
00
ff
ff
fe
01
ff
00
01
00
01
00
ff
fe
ff
00
fd
00
ff
00
00
00
01
01
fe
00
ff
fd
00
00
01
ff
ff
fd
00
03
ff
01
ff
fe
01
00
01
01
00
00
ff
00
00
01
ff
00
00
00
00
00
00
00
01
00
00
01
00
00
ff
01
00
01
01
ff
ff
00
fe
ff
ff
01
ff
01
fe
ff
00
02
fd
ff
ff
00
00
00
ff
ff
02
00
00
01
fe
03
fe
00
ff
fe
fe
02
00
00
00
01
00
00
ff
02
00
00
00
00
00
ff
00
00
ff
ff
00
00
00
fe
ff
ff
ff
00
ff
ff
00
00
00
00
ff
02
00
00
01
02
01
ff
ff
fe
01
00
00
00
fe
01
00
ff
00
00
00
fc
ff
ff
fe
ff
ff
01
00
ff
fe
ff
01
fe
fe
00
ff
00
00
ff
01
01
00
02
00
01
00
ff
ff
00
00
00
00
01
00
01
01
ff
00
00
01
01
00
ff
00
01
fd
00
00
ff
00
ff
ff
ff
ff
ff
ff
00
00
ff
00
01
00
ff
00
ff
00
ff
01
00
02
00
00
01
00
00
00
01
ff
00
00
00
ff
00
fe
00
ff
00
00
00
fe
00
01
ff
00
00
ff
00
ff
01
01
01
00
fe
01
00
00
ff
ff
00
ff
00
01
00
00
fe
fd
ff
01
00
00
00
00
fd
00
01
02
01
ff
ff
01
00
00
00
00
01
00
ff
01
00
ff
01
02
ff
ff
00
00
fd
01
00
00
00
01
ff
00
01
01
00
01
01
01
ff
00
fe
01
01
ff
00
ff
ff
ff
ff
00
00
00
01
fc
00
01
fe
00
00
00
00
00
00
fe
00
ff
00
00
01
fd
ff
ff
00
00
ff
ff
ff