C9 06 F5 06 FA E4 F8 00 01 E1 04 FC E3 18 0A 08 12 1F B1 CD C4 1F 1E 0D 0A 1D FD D0 0D F5 19 29 F1 14 0F EB CC C7 1E 29 0A FF 0C 80 C0 C7 DD EC FA F8 F6 0B F8 0C F8 02 F2 09 01 FB 0B FB 38 E5 0C 1C F7 F9 FA 0D F5 FC 02 A4 D9 E9 F8 F5 F4 EC F7 08 FD C5 F8 05 EA 13 1F 0E F7 F6 D5 C5 FC FD EC FE 11 20 0C 58 43 0A 22 20 B5 B0 08 09 E2 05 FD EA F3 DA DB ED 05 E7 AD B6 E8 04 04 E2 ED EE 15 13 24 0D 09 E6 E0 0F 09 00 EC FB 06 00 F8 02 FA F7 0A FF F2 F7 00 FA F1 1A 0A 01 04 E9 FF 12 0C E3 15 17 13 D1 CF E9 0E 11 0F D7 E6 EB D7 0C F5 EB 02 17 06 A4 E8 CA CC FB 16 19 20 20 CC 80 A2 E7 13 17 19 0B 0F 2A 15 EF 08 DA A7 9B 0C D0 D0 DD 0F AD FA EB CA 9C 04 DC BD EC E2 B6 03 04 0C EF D4 D9 10 24 13 FC F9 0C 17 0D 0F F5 11 0A 09 1D 05 03 ED FE F9 02 06 0B 0B F8 1F 03 D9 FB FC 12 1A 24 EF 1C E7 E5 05 FF 27 34 E5 EA C1 FD DF 18 D5 17 ED FB F2 06 C6 19 03 FC 05 15 02 EA EB F7 B2 CA D6 14 FE DD AC 0F E7 F0 01 E3 07 00 07 F4 03 F2 0E 11 FA 12 14 02 D8 0E 29 1B DB E6 07 DC FF 17 0D C3 E8 FC EA 03 20 14 E8 FE DA D7 06 E6 E0 B6 E1 E5 06 05 DC C0 F4 E3 05 1C 02 CC EA EE E7 E9 25 FF FB 0F 02 09 13 14 FA 0E 26 24 16 16 19 F5 07 20 10 FC FC 0F 08 04 E6 D9 F3 ED F4 01 FA FF BE E6 DD E8 FF FE F7 E3 F7 D8 E5 01 D8 E4 03 C3 BE 18 03 E1 14 11 E6 E6 19 02 C9 0D F1 F5 23 0A EB B5 F0 E2 08 08 0C E9 F4 03 08 FB 00 00 F4 1C 1B F6 F0 D8 D7 27 10 F2 D1 09 1E 0A 22 07 DC ED AE 80 FA 22 06 EF 08 10 09 EF 13 18 32 40 20 3A FD 0D 16 28 25 00 30 26 FC 11 10 94 E4 D2 02 2E DE C5 80 85 D7 F6 F0 10 EA D9 C3 03 FE FB F3 D1 ED 20 14 E6 CD EF C7 18 36 32 B7 EE FB EC E5 22 31 C0 1A F8 08 D7 CE D7 EF 1E FE 2B FE BA CE FA DC 2B 10 FB F8 E8 E5 EB 19 F0 F7 03 F1 E1 04 0A F5 06 ED 03 13 03 08 04 F2 D4 1D CA 10 20 1E A1 0E 10 A5 19 0B 13 DE 0B 02 EB 0B 07 15 E4 0D CB 05 2D 26 1B 80 80 B3 FB E4 F5 01 00 F0 F8 F4 F8 EE CA 13 FE 18 D1 0A EB F3 3C 1A 1B 06 0D 07 D0 10 0B 21 E6 F8 0B 0B 1A D5 E9 F0 DE F7 0A 2E C2 A9 ED F1 F5 F3 DF EB C9 E1 04 EA 02 F1 05 06 26 0B DD 06 01 19 06 01 F8 0A 09 F9 C9 E5 D7 E2 26 19 B1 CD ED C6 17 E7 E7 14 12 15 B7 ED C7 EE 03 20 11 25 0A B9 8D BF C2 E2 05 1D 1E 03 FE FC 01 1C 41 0E FB 13 1A 16 1E 35 E1 04 F4 EC 03 02 81 89 E6 07 BA D8 EA EE C2 D5 18 F8 BD E1 EF 01 3E 27 CB 80 D2 21 DB F3 DA CC B2 19 F8 E2 F3 EF 14 D2 FA 0D 00 DF FD 0B 22 1E E9 04 F6 EF 00 13 01 11 CB E6 C5 DD FE 06 0E 09 F8 CD E9 F1 0E 15 F9 07 09 10 07 06 DB F3 EF 04 FB CC F6 0F F4 10 1F 1C 05 0A 1F EA E6 F1 01 3E E8 12 E0 CF F6 AB 19 F9 14 E1 0B F9 B2 E4 18 D6 0E 09 D5 CF E4 23 0D 20 FF B1 80 FF 08 E4 2A ED A1 05 05 FF 05 DD E7 EF F3 FE E8 FA E0 F6 08 FA F7 D7 FC E8 ED 0D FB F8 D6 E3 E1 09 F2 DA C3 EA AA 12 17 E9 F5 16 1C EB 09 16 F2 F7 F3 CE FE FF FC 06 B7 DB 00 1C 24 0B E8 6A 19 1B 18 F6 F5 E5 DC AF E9 EF F6 F3 D7 B2 E7 03 19 09 F0 DD E5 19 24 10 F6 FC 09 F1 0C 14 25 24 09 1C 14 2D 32 F9 05 FA FD DF 11 0B 0C D9 EE D5 EF F3 EF 0F D4 F1 F9 F9 F6 06 E5 FA F3 25 16 0F DA 10 0E 1D 1F FE F2 F3 F8 1D 0B 1C EA 18 04 17 1A 00 02 E6 02 DE E2 23 FE 13 17 08 00 1D 0E 10 20 F9 13 0F 13 09 E1 FB 29 FA F1 FD 0A 09 0E EB EB F7 07 08 00 E6 E5 F4 0C 22 0E 19 13 FE F9 05 FF 17 03 09 F6 F9 F6 F7 F8 ED FE 07 01 E6 2A 15 FE F8 FA 02 01 13 0A F0 E4 D3 F2 F1 01 1F D9 94 D5 05 1C 11 1F 98 94 CA 12 31 2B 30 D5 01 0B 0E 15 37 02 05 15 F6 20 F1 2D 10 51 05 FC 13 2C 0F 2A 22 49 0B F2 0D F9 02 06 1F 09 17 0A 25 EE DB 21 19 1E 00 0A C4 C7 25 38 DC 15 FF 8B DB 28 14 B6 39 FF CA 04 17 0B FE 18 E4 E5 D7 0B D4 05 06 F8 F7 47 48 1D 03 E5 01 18 1D 61 15 FF 0A FE 17 86 0D 18 14 18 01 0E D1 28 13 0A D4 05 E2 33 1B 0D 06 E9 FE FB 65 0C D3 04 F2 07 30 40 08 00 FE D8 FA 08 0E EC 33 36 D8 0D EC 02 35 05 18 EF 05 01 F5 0A 08 FA 17 2C 20 33 2E 06 00 DB 0E EC 38 14 E4 BE EB FA 31 06 07 E1 FC ED 02 F8 1F 10 FA 0A F0 0D E8 14 FD 2C 26 14 03 F3 10 14 76 F7 15 FF F5 CB 11 19 E1 15 DA E7 E9 26 29 FD FA C2 E6 02 56 26 91 F2 F3 0B 0E 28 BF E6 FD E9 26 05 E9 21 1C 04 26 05 08 80 EA 07 09 13 04 2C 00 E6 D7 FA D0 E5 DF F4 F4 AA E2 0C C9 E1 1B F4 19 05 A9 E9 E8 29 F1 F5 1D DF E4 F5 03 1F 06 30 E9 F1 06 04 F9 EE DB ED F1 16 20 FE F5 07 0F D8 EF 16 23 32 E8 07 BE E2 25 4C 2A 03 F5 B7 04 27 F8 D0 05 98 E4 FF 19 E3 DA 12 DC 01 1C 1D 17 24 15 F4 08 15 0E 73 ED 06 1D 07 F7 EA 00 1F 00 1D 1E 0A 00 DE D1 D9 E7 03 F1 F7 DE D1 D7 03 D2 D6 FB FE F1 07 D9 F8 E1 00 F3 0D 31 1D DD E9 F9 08 28 01 03 E4 FF 00 F2 28 D8 08 0A FF 07 19 F9 FB 35 D4 E3 05 FE 12 03 F9 EA F7 28 1A 11 01 03 04 19 08 EB E8 FE E7 0A E4 D9 FC 1B 14 32 2D F6 E6 AD D5 E9 EE 13 E7 F0 61 05 0A 14 1C 02 0C EB F8 ED 2E 19 E6 EC E8 F6 EB 0E 01 A8 16 E6 C0 F3 E4 DC CF C8 C9 E6 FF 33 1C 4C D7 05 34 07 05 F2 02 2D 0D 44 E2 D9 F3 12 D8 08 EB 19 2A FC F4 E5 F4 CC ED 06 F3 E8 E0 B3 E4 C5 BC FF EC ED E8 E6 F7 04 EC E1 CC D4 C3 FC BD 1C F3 D8 F4 1E 14 C5 11 FE 0F 0E 19 01 E4 19 F8 FC B8 F2 D9 E9 02 F2 E5 EA 00 1A 08 E9 06 FA D7 D0 DA D1 06 DB F3 0E F5 29 00 0C 2B 22 24 18 25 30 2A FF 21 24 EA 4E EF F9 F3 0E CF FC F0 B6 BF EF C6 DA 1D E6 03 11 16 0F F7 FE EB 16 0F F7 F9 F2 F8 DD 09 F7 F0 EA D7 FD E1 26 14 23 0D 03 F3 12 30 06 0D 05 F8 0B 01 29 04 F6 17 11 2C 40 D2 CF DF F3 23 29 FA F4 30 51 5A 37 00 02 FF 22 18 17 FD 85 D9 15 27 35 39 FF AE E3 E3 FA F8 C8 CF 10 37 02 E9 DC E8 01 56 2C F7 F2 F9 ED 05 09 00 E5 F7 0E 0F 11 F5 F7 E7 3C 15 07 04 EE 02 F7 FB F1 F1 F4 EA 0A 01 EF 07 EC E8 ED F3 0E 14 2E 20 08 05 32 14 0C 1B 09 00 24 22 10 EB DB 03 2D 43 4A DA BA D6 C8 02 0C 00 FD E6 D2 CD ED C6 D1 EA 4C 1E 0D 09 80 D0 14 2E 1B 17 03 C1 03 F4 22 1E EA F2 00 23 DD DD 05 0B FE 11 1E 1E 09 10 15 15 1A 12 0A 0E 0F 07 F8 F5 F0 E4 FE F1 05 10 23 F0 ED F2 F0 F9 F0 EE E7 00 FB 0C F0 EA F7 EB FB 11 0B 0A 06 25 2F 0E D7 E5 FB 31 1C FA FF D7 FC E6 10 01 09 16 F7 E2 A3 1C 1C 07 F9 FE 10 C0 0A C8 FD F4 C4 FC E8 0C EE DA 20 E7 FE EA 01 E1 E4 27 F5 E5 CF E9 DC EB 3B 0E 25 1C F8 1F F6 37 14 17 0F 00 22 E5 F4 E9 C6 13 B8 E6 F3 06 10 16 F1 ED FC 21 00 00 B8 EF 03 05 12 01 CB C6 F4 0D 10 0E 04 B2 80 F7 0C 0B E5 04 D0 D5 F6 F0 ED EC 05 04 DA AF E6 EE F6 01 EB 97 99 DE F2 EB 08 FF F1 EA C3 E1 0D 01 1B 0B F6 D0 F2 24 FB 52 2D 29 EB E4 15 F1 41 03 FC 0C 13 08 F9 23 26 19 10 EB EE 3D 03 1B 01 F1 FB FB 0A 06 09 FD F2 DD E8 02 FA EC 02 B1 ED 19 EB F4 F4 12 9C F0 26 E7 E9 03 18 26 0B 15 FC FC B8 F0 2A 21 18 0C 2E 1F DC F2 AF EF 04 21 13 CD B1 DE E9 FC FD E2 93 B7 1A FB DB 3C 1E 32 03 E6 01 05 D8 02 2E 2B F5 EB F9 EE 11 0F 22 0E B0 EA DA 8E C2 CA E7 F3 10 FE F3 EE 1B 53 14 11 FD 29 FA 2E 41 DC F1 02 FA 0B 02 FF F6 0C 00 FA F2 EC 25 F5 00 FA 06 FD CC C4 26 DF F5 E1 F6 10 1A 2F 0A E6 F5 13 22 20 28 1C 1B 30 1B 0F E7 1B 07 1F 09 F6 E6 CE F2 FB 1F E2 AD 0B 0B FA E3 07 26 00 F0 B7 FF FF E3 2D 1C 1C 35 B3 D6 CF D1 07 0C 02 BC 04 DE D6 05 C3 C5 09 30 FE 00 09 DF 00 09 EE F7 03 E7 44 2E 0F F6 D2 BE 14 1B E2 02 F6 07 0F F9 E8 E9 19 F4 FF 05 0E E1 D9 19 02 F9 F4 EE D7 DE 13 1C 1D 10 01 FE 13 1E 1F 0B 2E 20 1D 1C 0E FC CE F2 25 20 15 1B D0 DC EA D1 C5 E1 FC FF EE EB FA 07 0E FD D8 F3 E4 1F 0C DD F1 0D 51 33 05 FE D4 EC 34 05 D0 15 E7 E2 FA E2 9A C9 01 22 31 11 B8 BD F0 FD 59 5F 07 10 01 BF DC 27 FA F6 DF 4A 1A 0C EC EF EE 07 00 FF 04 FB F9 C4 FA FE 03 E6 EF BE E7 E8 04 0D ED E3 09 2D 0C EE F3 12 02 0C FE 12 ED 05 05 0E 24 06 CB DE E3 26 28 EF 01 07 02 FA 04 05 06 FD 0E F1 EA F9 D5 B9 97 E4 F4 20 29 27 00 C7 FD E6 2A 19 08 1E 32 EF CD D1 EC 23 EA B8 FA 03 F9 28 3E 23 1D 33 F4 17 30 28 0C F5 0F 09 F7 18 1B 09 E4 EE 09 0E 19 0B 05 DA E5 01 02 11 03 EB CE D4 07 F1 FF FC E8 0B FA 0A F6 F4 09 FC 00 FD 0B 20 11 00 ED D3 FE 3B 5A 39 19 EC F0 EA E2 09 21 E6 F6 EC 1D 12 3C 0B F4 A2 CE 0B 28 31 24 D3 D7 FA F7 2A 2C 2C F1 CE B1 F2 FF 2D 1A 06 BF DC 04 0A FD F7 E7 C4 D4 03 FA 01 FB 03 F8 F7 16 FE 04 10 16 F9 F2 09 00 03 15 03 FC DE F2 F6 0D 0A D1 B3 AD E7 06 02 1B 0F F9 1A F1 F8 FA F6 F8 B9 CF 0B 0E 0C 04 F8 01 ED 1E 2F 56 41 28 DB EC F3 E2 E2 D7 F9 DD E9 13 24 15 F2 C2 EB F7 12 3E 28 F7 F4 EC FA 26 10 03 0D 37 21 BD B3 EF FA 07 F7 CC FA F7 03 11 06 0B 0B 12 E3 17 15 0D 0C 14 FF 0A F5 19 1D 16 18 00 05 F5 FE 0E 08 01 A9 2C 27 D5 1C 1D E4 C9 06 C5 B1 E4 14 EF 08 04 03 D2 E4 E3 DB B0 FD 06 FC CB 01 EA 13 0B 78 28 30 FA CD 0D FB 1B 12 E7 CD C3 FF 03 02 D7 0D 04 16 F8 DC E9 B2 F4 F7 F6 EF C1 C3 DC 3D FD F5 00 F0 F7 D3 04 0A 0A F6 19 FD F5 FC 0F E8 FA 07 D9 1E 16 14 EE FF 00 00 FE D7 E3 EA 0E FD DF C1 21 13 0F 24 F1 F3 DE FC 17 11 F8 03 17 33 B6 EF 01 FA FC D9 C9 C7 F1 08 19 EF E8 98 EA 0F 0B 0E EF C0 8A 15 FC 28 10 EE FD 0F B8 DA B2 D6 F5 0F AF E9 14 ED EB 10 32 14 19 16 30 0E 08 1C F1 FB 06 FE E5 EC D0 CF F1 11 10 0C BC FF F8 16 14 1D 0B F4 DE CB F6 08 27 09 F7 E7 0D 26 AC DC 03 E5 D8 CB AC DB EF F6 E8 F5 DF D9 C1 34 16 C8 FB 35 E6 91 1E E7 DB EA F0 A7 E7 1C 09 F4 F2 CC B0 0B 19 01 E6 E5 FB CA E7 E9 F6 2B D3 00 5E 48 FC FD 09 F7 0C 21 FD CF E3 EC E5 E5 DF D4 C5 DC B3 ED 22 24 0A DC F2 08 1F 1B 19 F6 EC B0 F0 20 DF EA CD EB E1 13 04 0B FB 0D FE 08 37 05 EE F1 F6 FF 27 EC 00 E8 B6 BE 87 CA CD E6 DB EE FA BE E7 DE D7 D1 01 E4 88 D2 EF F4 E0 D9 0D 1D F7 01 FF C9 03 08 FC 08 E0 F0 09 D1 0A BF 01 25 EE DB 0B 0A BB F9 08 07 1C 0B 01 1F CE 00 C5 DE F6 00 D1 A6 01 AE EB 1B 0D FD BC 22 16 DD 30 1C FA DB 07 1D 00 10 F5 CF D3 0A 2E 0E EA E9 12 E5 FB 0D E8 EC 1A 0B 04 08 FF FA E7 E3 E8 DF F2 0A 00 03 1A F9 D6 F2 13 22 4F 14 E5 24 E3 F2 D6 08 04 EB C3 FD F1 1E 12 F7 1B F0 1C ED 31 4C 2C 09 F1 EE FC ED 19 0B 0D 1A D4 F3 05 07 0B EC 12 F4 0D A1 AB 08 E8 FB 29 41 11 F2 25 11 FE FB 52 28 20 12 D5 03 13 57 1B D7 E0 DD DF D9 1C D1 AD 9B FF A5 22 F2 15 39 29 D7 E2 1F FF 0E 23 01 DA D8 FA 13 0A 02 FD E8 D8 D5 04 FA 17 14 ED BC 0C 0B 0B EA 09 F5 FD 07 1F 12 0C FC D0 F5 24 3E 33 0B FD 11 DD A7 07 F5 00 0C 04 ED FC F9 11 0D 4C 22 15 E8 00 08 FE 19 12 12 03 FC E5 FA F6 0A 11 E4 F1 E8 EA EB FF EC FE 0A 19 01 AE E7 0A 21 2F F4 FC EF 18 34 00 DE DE E5 EC D8 FF 1B E4 EF D7 E0 F6 26 EA 08 FF DB EE EB E9 3A 15 FD 21 15 27 13 00 02 08 28 05 0E FB F4 FC 06 F8 B6 F7 13 28 F7 BD E1 0F C4 2F E6 E1 AB 80 80 C7 D9 F1 EF B9 80 80 F3 FB F8 ED DD E2 D3 D8 19 04 0B 0C 27 DE 15 F1 05 07 07 F9 FA 0D 03 07 0D FA FA 0E 15 DD FB F9 03 FE 02 FB FD 00 F2 C5 FF F3 F5 1E 14 E7 EB E1 08 0B 15 FC 0D FE D5 EA 24 FB 19 1F F5 F3 07 13 04 02 03 E1 07 F3 25 1C 24 05 0B D4 B6 ED 26 1C 15 06 F2 EB EC FB F1 14 0E EE 0B EE 0E E0 C8 D7 9E F6 0F 29 02 B2 CC EA E1 0F 14 C5 F9 0F ED 0A 18 ED 18 20 01 07 1B 17 EF 03 0B EA DA E2 09 06 FF E5 E9 E3 ED 08 2F D8 FA 06 E3 DD F9 06 13 F7 EA E8 CF 18 2C 1C D4 FC E0 F9 27 FA 06 F1 14 2F 2E 12 EF 2A FE 22 1E 21 3F 07 1E DA AB F5 FE 13 08 1C DF 16 1B FD C8 D4 FA EF A2 FE E5 04 06 FE 1C 3A 2E 07 25 E0 11 F0 03 CE 34 20 ED D3 0C 03 D8 35 21 F5 00 0C 1F F6 16 22 BA E5 E6 F9 0B 0D 1C E1 D1 0D E8 E3 D7 CF F5 EE E4 FE F9 F9 CC 07 F7 EE 6E 58 26 F7 F3 02 20 2A 19 23 0B E7 1B 07 08 D3 06 03 DF F2 D4 17 D8 03 FA F8 FA FF 0D 0D FE EE 09 FB 13 20 21 F7 E8 16 FA 04 F0 DF 10 A3 F2 0C F8 24 08 EB 12 14 11 FA D8 E7 F5 F5 F5 E1 A1 EA C8 FD FE DD D1 E6 06 E3 0A FE FE 18 1A 1E 0C F9 F1 FC F8 15 1C FD 0B F9 1D A9 B8 EA DB 0C 03 C7 DB E4 22 62 7F 38 DA FC EE 1D 1F 4C 05 FE FD ED E9 15 3E C1 DD E0 E7 E9 F6 DB B9 F1 06 05 19 2F 1F D8 06 E6 31 13 37 05 ED FC C3 B1 E0 D0 A0 00 F9 16 19 37 45 EF F6 FD 0D 1F 1C F2 16 E9 37 2E 12 0D F3 F7 27 0F 15 07 E8 07 EF F4 F6 01 F3 E7 FC 2D 2A CB 17 D3 F0 F6 E8 01 EA B8 E4 DB F5 EB 09 EB DC E2 0A 1D 28 1E 06 F2 F4 17 FD 08 2B E3 0D 1B 09 BD 23 1B 18 0B 02 07 0F 12 E6 E9 F3 FB F8 14 1D 22 03 FF 03 07 16 13 1D FA CE D2 CD EE EF 28 FC 03 FB 27 07 E4 EA 06 1F 49 1B A9 FC E4 10 0E 17 1D 13 B6 05 1E 0B ED 0A F5 EF 0B 0B F1 DE C4 E1 24 30 FD 2E 13 FE 0A F1 E9 F3 FA D6 D7 E0 D7 EC FD E7 F0 E7 DD 0B 00 02 04 04 14 02 13 2C 0B 26 27 15 C2 FF 12 FF 08 F4 F5 F1 E6 16 1C 39 1B 13 E2 9C E7 03 21 06 0D E7 C2 1F F8 F3 03 0A 0A F0 EB 06 13 11 3B E5 E2 E1 FB 07 BB FA DA EC 0A E5 DD A3 0F 1C CD 20 08 FF E5 F3 01 D4 EB 0A 1A CF 92 D4 22 25 2C 0D EF DE 54 25 DC FF C3 DE 06 CD DF D4 DA 27 1A DF C5 9F 0B 32 0B E1 B4 C7 D3 F4 24 21 17 17 1E F8 23 E2 0C 0B 18 24 15 26 EB 16 0A F8 F1 E8 0A E7 17 EA D3 FD 02 EC 13 36 CE 0A FE 1B 07 19 01 0D EB FD 15 46 44 06 E8 D6 C5 B6 10 20 BA E9 E6 E9 D5 BC BD FB E7 F7 17 F8 F7 FC 03 EB 2D 10 21 22 F5 D8 EE DE 01 2D 04 0A F3 E6 F7 0A 1A 22 03 FE 05 03 FB 0A 0C FE ED E5 FA E7 08 10 1C B9 E4 04 01 0C 00 03 08 EF F7 02 08 16 FE EF 17 28 0D F5 F9 15 F1 0B F7 22 03 34 EE F2 E4 F7 2C FB E7 FD E0 C0 C5 2A 47 2C 1D F1 E8 E0 14 4B 3F 33 06 2F 02 1A 2F 34 0A 1D 19 21 1E 0F B6 EF F6 1B 11 F8 E8 DB 0D 07 F9 0D 09 F0 F9 0A 08 EA 02 19 1A 0C FD E5 FB 08 F5 0B 0A 06 05 EB ED E9 15 17 1E EA D9 E9 16 E2 D7 11 0B F2 DA EE DE 19 F7 F2 15 22 1D 0F 03 D4 ED D8 F3 61 4F 41 0C FA DE DC EB CA ED E9 0C 80 E6 3B 3B 33 06 CA CD FD 33 49 4D 17 EE 2D 2D 13 EC E1 F5 0F 28 08 EC DC D4 EB FA 02 00 FD 01 FD FA F0 EF 07 0C 0C 07 09 04 0F 05 F9 F4 F2 12 E7 04 F9 11 13 0D 22 A5 E4 F0 07 0C 22 41 04 F6 F9 FA E8 DF 0A 10 FC EA EA 01 DA 09 FB E6 E8 FC FB EC 2E 2C D4 00 F9 18 00 3D 08 B0 0C 11 16 08 0F EE 00 1E 09 0F E3 3B 08 0F 15 07 06 F5 36 CC E0 14 04 F5 EE F6 D1 CF ED EC F7 01 19 ED DE FE 13 08 FB 4A 04 D0 E0 E4 15 E5 FD 0E 1D CD AF 0D 19 F3 02 02 E5 CF CD EF E7 13 E9 1E 02 AC C8 D2 10 BB DB 16 E9 E7 FB FC F8 D7 EA 0A F9 07 02 48 1D 0C 02 0D 01 01 12 DE 02 0C 00 01 FB 0A 00 4A FF 31 04 02 F7 12 0E 27 3B F4 01 B4 EB 15 E1 E3 FD 02 28 D6 0E E1 D9 F5 F0 4B FA 04 02 F1 05 FE 1E 41 0D 0B 04 FB 09 E1 FB 20 0E 08 10 F7 05 F5 01 03 E4 05 05 10 0B 24 14 45 F4 FF FE 0B F6 81 E4 B5 EF 02 16 14 E9 C3 D4 FE E3 E3 FD 0A 15 F7 09 C1 B2 F1 FE 21 0A E3 C5 8C B5 FA 18 F5 E5 F0 F8 17 07 F5 FC F2 1D 0D EB DC C0 0D F1 09 08 03 F4 F6 27 DC 1D 26 03 1A 16 7A F5 FB F9 DF 0E FE E7 E9 05 F9 DF E4 E1 21 DF E0 10 FE 04 01 53 0B DD 02 10 1E F3 24 12 10 0A 29 41 40 06 07 03 1C 05 A5 E3 E9 E1 FB 05 FA F4 DA 06 EF E4 ED 12 F7 01 00 10 F7 C8 03 00 45 FB 01 D7 B4 96 9E 1A FD F6 CA 01 FA 24 E8 00 F4 0F E8 CC CF A5 21 CE EE 03 D8 F0 E7 3C F1 09 F7 F9 23 1D 14 FF ED 06 03 19 04 15 0C 12 14 04 F0 E3 2E F6 F7 03 F2 EC DF 23 09 F8 FE 0B 13 FD EB D3 0D FA F4 0E 23 1B FD EA E2 E7 F1 F9 2F F0 D6 E1 DF B8 DE 19 17 F7 D1 FE F6 09 0E E2 29 2C 11 24 08 F0 14 00 0A 56 2A 46 08 09 E7 04 E4 F5 E8 DC C4 E2 0C F8 E8 EE E8 B3 EB F8 30 2C 1D F4 F6 6A 28 2D 1D 01 07 0B 1D 1F 0D 04 FF 07 2F 2F 05 F2 EB B0 F1 EA 09 DA DB CB CE E6 ED E3 C6 0C 19 2B 09 ED FB 07 04 08 18 01 ED FC F3 FF 27 1E 39 E4 1C 0D 07 07 F7 12 07 07 E6 F1 01 F5 E8 FB 0E 16 15 F6 EF 20 C3 F6 18 15 FD 04 12 27 26 1E 05 0E 08 05 12 15 05 FF F5 F0 99 D3 07 16 12 33 F0 24 17 12 05 00 18 D8 97 F1 EF C9 E8 FD 24 15 DD E7 C5 BF 39 07 01 F9 9A 16 F6 D9 DE E8 14 2A 08 11 FD 02 08 0E FA EB EC E9 FC DD DC EB 06 FA 0A 16 F6 F1 08 FC 17 14 09 23 00 06 E2 07 17 EE 04 DC DD F4 06 0D 17 BD 02 E5 DF D3 DE F3 02 07 E1 D2 BB 57 20 0A 0A C6 B4 D0 03 23 13 D7 8B 80 D5 07 17 D3 08 D2 85 E6 F4 CC D9 F9 E4 D2 05 0D E2 ED 13 EE 02 09 FF EF FD FA E6 DB 01 20 04 FD F7 0C 16 0B F4 0A 02 19 F0 E4 F5 FD F4 DE C2 0C 06 0E 36 20 22 0D 09 00 09 0F 04 D8 E1 01 0A FF EA F5 E8 EE D1 B3 FC 04 F3 CA 02 E4 C5 CA 03 02 0B 00 03 EE 31 39 4D 18 F6 F1 FE DB 1A 15 10 DF CC 17 0C 2A 26 EE E7 A5 A3 E7 DB B5 C4 F2 D8 C6 00 0F 14 08 FB FF FD 11 11 01 FE DC FE FE ED F3 FD BD 2A 21 FC F6 FA 05 FD C5 FB F2 EF F3 DD D7 F7 0F 02 32 22 FC 00 0F FB EC 27 03 E7 F9 CF 00 FA 00 03 00 E8 F8 E7 F7 FB 1A F3 BD F1 10 F8 EB DE CD FD FF 1F 65 0F F4 13 F5 21 19 15 E7 D4 07 09 16 19 0C EF A1 EA F8 FC 09 16 09 C0 ED 1F F9 02 1E 22 F4 F4 18 E3 04 2D 14 EC F1 E1 F1 E6 E6 DC EA F3 F7 EE 27 46 1E F0 08 04 F7 4B 3E 0C DA F2 ED 04 1E 1F 14 B9 DC F0 FF 47 0F 20 BC E9 0D FD 27 0C FA 00 15 10 06 D6 17 E5 17 02 F9 FA FE 12 F3 F8 05 E5 EE F7 20 3D 1D 2D 1D 03 2C 42 21 1D 15 0C FB FC 1B 16 0C FF E4 FD 2E 03 F9 C2 EC 1B 04 C7 FC E7 1B 0A 17 FB D6 F0 10 04 F6 FB 01 E1 F3 D9 F2 15 E1 2C 25 0C 1C 36 26 08 01 1B 0A 2E 3F 05 0E EC 2A 11 13 D7 C2 2D 06 2B 1B E8 C9 FA 16 0C 0A 30 0D 03 17 EE EF 07 EB 80 C7 EC F7 BC 0E D7 80 DC DA E8 3A 1E F9 E0 40 14 06 27 12 C2 DB C9 1E 02 E8 F3 C2 8C DC F7 FB 08 06 C5 B7 FE EF A0 09 0E 14 FE 09 EB 2A CA FF 21 24 E5 EB 1C F6 EB F7 FB EA F5 B7 14 27 14 06 05 03 EB 1F 19 05 12 15 02 B4 ED 14 13 29 D7 C1 32 00 27 0F 2D E1 DD CE 07 14 08 F3 E6 0B 0D F0 FE 03 80 F3 A5 F8 C4 FB ED B9 BA C9 07 38 32 11 F6 14 19 FC FA 17 D4 FB 08 07 21 ED FE CE BF F3 0B E2 F3 02 01 00 21 08 0C EE 11 00 02 17 0A 0E E8 04 1C 14 F5 CF C4 08 E2 ED F2 F4 23 C8 09 37 20 24 01 1C 0A 12 F7 E9 FC F5 09 E5 B6 FE 0D 13 1C 06 15 F2 08 F6 3C F9 F4 FF E7 F7 03 FB F6 01 F3 06 B6 B3 E7 E9 12 DF 02 D4 80 01 DE EC 03 18 22 FE FF E5 FC 15 1C CE 96 98 C1 FF DD 16 CC DF 2F 41 24 1A D7 BA D3 1D 38 FC 00 F9 A7 CD F8 0E F5 EA 1C F8 05 22 E6 D4 D5 06 1E 1A 01 F6 CC FB 34 17 0A DB F1 E3 FA EC F1 DC F2 FB F7 1B CA D8 CA EA 06 F0 8F F6 DE C9 12 0D 07 02 EB F1 DE 16 0E E2 0D C6 F8 FB 17 15 10 C5 F2 DE DC 23 0E E7 D1 0D E8 E5 E2 DF EF BA F7 02 D7 CD E9 03 CF FF DD C9 00 0D 0B 12 EC DB 04 07 EF 0D E9 C4 17 27 F6 E8 1D E5 36 10 20 FB D1 D9 F7 1C 1C 22 22 0A EB D0 07 EA CF E4 DC E2 E6 F9 F6 0D F7 F9 03 CB 2D 0C 1A 2F 36 18 F1 0E EA 1F E6 04 07 F2 DE FB 05 10 15 10 00 01 F2 EE D3 D2 DC BE 13 EB E2 E5 D4 03 F7 FA 05 ED 08 11 FD 05 FA 32 40 44 26 1C F3 03 1A 2F 27 EA DE F2 F8 04 17 D4 32 EB 00 E1 12 0A F6 F7 F4 EE ED EC D1 00 E8 01 F8 1A 02 F7 F0 DA F1 FD FC DE 89 D4 D5 DF EB 0B 09 14 F9 F6 E8 DE 10 F2 FA 02 26 3E FF F5 F7 2F F6 F4 08 0F EF 25 22 00 FD 0B 0E 07 14 08 F6 F9 D7 DF 0E 09 18 F0 E6 F3 FE FC EF FE FB 02 F8 FB 0B 49 5A 4E CF 26 CD 02 18 1E 30 F5 13 06 12 3B 3E EC 14 02 F1 0A 10 F2 E9 1E 33 F1 D7 CF DA CC E1 F8 EC 25 F7 E5 E2 DB E1 CD 0A F9 03 F8 F5 DE EC 17 FA 0C FB FD EC E7 05 2B D8 D5 27 FC 1D FA FD E9 DA 2C 20 FC E1 06 F8 CB 1B 34 26 2A FD DD 17 EA F7 CF A2 F2 F4 0C EB 18 0B 05 05 B1 CC BD 10 FD 2B FB E3 FD F6 17 D7 DE E1 21 36 21 20 D3 00 F1 0A F2 0B 32 E7 06 F6 E3 F2 1B 29 EB C6 22 F3 10 1D FF FE 19 18 FE 00 0A 0F FC FA FC D0 B0 DF F4 1D 00 EF 2E F9 00 06 08 10 AC 11 0D 08 0E 07 E6 DC 35 1B 0E 0D FF 0E 50 6A 08 FC F4 09 06 E9 1B 2C 03 02 E2 00 0A 34 FD FC 0A 14 EA 05 03 FF EC F1 F4 FA E4 F3 C5 46 1F FA EB EC 11 10 18 13 F9 1D 48 71 27 07 0C F0 52 4A 21 F9 0F 15 14 F1 F1 F3 F9 EE F0 EB E8 21 05 FC 0C 06 03 FE D4 DF 9B CF C2 FD 24 01 11 80 80 23 17 F1 E2 D9 21 D4 1E 0F EC E6 C0 28 18 E1 1E EC 11 E6 10 26 18 0D EF E9 09 20 12 0B FE FB 13 18 3D 14 04 EB F3 A5 CD 9A 27 FC 07 FB 34 4C 0C E7 06 FC 00 0E FF 1E 23 ED AE 01 D3 E7 E6 03 F3 D6 D3 CA E5 E4 E9 BE E3 1B CF E1 05 0F AF 24 E3 0C 0A 05 08 F9 CA 07 E2 E6 E5 E4 F9 E5 0D FB 07 E5 E3 13 ED 1B F4 0D 16 1D 25 FD 19 D1 D6 1A 14 3A 12 F1 D5 D8 FB 0D 31 F6 FC F2 03 FE 04 E0 FC 04 FB 1A 46 1A 4C 04 FC 01 D6 B3 9B 1C 0A 13 16 03 ED EB E4 CF 00 24 F1 0A 12 D6 CC 0C D4 E5 D0 F4 C7 E9 AE D7 00 DC F8 F7 FB 24 F1 F5 EF F8 09 F7 E9 E0 16 15 0A FB DA 07 F2 A9 C7 D6 F0 DC 09 0F FB F1 0B ED F1 09 CC EC EE 04 2D F8 F4 F3 16 EC F0 EF 04 DE 3F 1E F6 E6 21 37 E7 21 1C E2 FC BA F1 F0 13 0F FB 10 0B 03 EF 02 07 FE F9 F2 D5 35 4A 38 FF FC 01 EF 04 53 39 06 DC 00 F5 DB E5 04 BB F7 2A F2 F5 1A F5 D1 EF 22 FB E4 D4 80 0B F7 F9 E7 03 D4 1A 2D 00 24 1D FF 94 BE E6 D5 DA F0 FA FD 05 F0 FC CE D2 15 27 2D 36 27 EE F1 F3 08 E2 CF 03 14 EC DE E5 F9 07 0B 0A 0A 23 FF D9 EF EC E5 C8 18 FE DE DC EF EC FA C1 17 06 0E 04 02 01 E9 03 15 14 16 08 29 07 05 F6 F9 25 12 D2 02 07 0D FD 2D 2C 2B 00 30 27 01 FD F9 B4 0A FE C0 CA 1A EC E1 C7 B3 CC 23 02 F4 FD F2 04 16 07 F4 0F 23 0B 0E 06 04 05 11 02 19 08 DE F7 0E 11 2C ED EB F8 06 ED 14 D6 00 04 14 E9 D2 E5 00 0C 03 D8 FB 0B F7 D9 D5 F7 FD 1B 1C D6 F1 05 ED EF A1 80 FC 05 03 0F F2 D5 DB 1A 01 12 F3 C0 BA E6 E6 E7 1F FA D0 A6 05 17 00 FE CE 9B BF E7 E5 F4 0D 05 F9 09 18 12 F5 EF FF FA 0F 01 1A FE F9 E5 13 FE FF 03 01 FE 17 0E 19 00 0E 08 0C 04 EA FD F5 F7 0B 0F FF F5 D2 14 06 B1 05 FC 19 F2 14 B9 CB 08 FF EF F1 0C C9 DF D9 DE 95 AF C9 EC FB 0F 18 2E 09 09 24 14 CF C2 C6 C3 DC 27 1F 0D DA C4 DD EF F6 FC 1A CE AF FA 0B 20 1A 04 DC E8 09 DA D7 FA 09 E7 E6 01 EF F7 FF 10 0A FE 04 10 15 20 D9 EF 05 FE 07 FA FE F5 15 05 0B 0C 11 05 EA FF 0C 24 10 0C E7 14 20 22 FB 26 04 E2 E4 F5 09 17 EE A3 E6 DA 12 44 21 11 F3 BE EE C6 E4 A8 28 F5 C0 03 1D E4 FC 2C 0C 05 E9 02 EB F9 03 FC F7 14 08 0D 03 BB E9 2A 37 0C 15 19 E7 D1 4E CB 24 15 20 DB BC FC D7 03 EB D0 CA E3 ED 02 EF FF 1A 0D EE 02 FE F2 EF 21 2B 06 E5 F1 CB F1 CF DE 02 FA F0 12 FE E8 F8 08 07 FF EA F6 D9 0B 0A 07 F8 0C 09 0A F4 EC FC FF EC F5 FA 1D 07 19 F9 DA C5 03 19 FF 06 0C F8 DD F8 22 FC F1 F8 F8 E1 F0 E8 E2 E2 F0 C3 E6 D7 F0 0F 00 00 92 D9 19 FF FE 12 03 D1 35 F8 CA 01 F3 E9 D3 CF DC 04 0E 1E FD FC EF E6 15 04 11 FC 08 FE F8 DC 05 F9 F5 0A 09 E0 F9 D8 F7 00 0D FC F4 04 35 01 07 00 02 BA B3 21 FC 20 00 23 CA D3 F6 E1 15 08 1E EF 15 19 FF F6 D7 F7 CB 18 FF 0A E7 D3 F6 0D 27 F6 02 E6 DC DB DC F9 23 1F 23 1F 23 32 E5 F7 FC 22 0F 19 1A FA EC EC EE F8 EE 12 13 1D 33 04 17 03 FD FE E6 01 ED 10 04 10 FC FC CC F4 06 10 1F 0D 04 FC 02 FF 04 D8 0C FE 00 0F 11 00 D5 16 0E 0E FA 12 0B 21 F9 E0 DC 02 24 1E F6 D7 F9 D6 09 F6 08 F2 F6 0D FF FD 06 D5 DA 96 D9 FC E9 10 0C 09 DD E5 F8 FC F2 0D FF 12 1B 0B 1A 1E 1C 15 F0 29 FD F2 30 3C 15 F4 07 E6 EC FE 2B F9 FE 08 E5 FF F0 01 FB E5 CF C7 DF 1D FE F1 EC 01 12 F8 F0 2A 19 06 F4 F6 DE 12 1E 06 FD FB F5 13 1F 0B F3 F8 FB F3 FA FB 02 0D 35 34 D0 26 21 3B 0C 12 D4 DE 09 F6 B5 F2 F7 E3 F2 D7 E0 C3 B7 F7 D1 FC FB D2 FA 02 1E FF FF 17 D9 07 09 13 1D 16 20 F2 2C 11 D1 E5 10 07 DF 0A 05 23 17 0B FA C1 C0 E0 20 FD F2 F6 A2 12 EA BE DB 00 1A FB 08 F2 D6 B5 BB CA D7 27 FF F5 29 11 F2 02 0B 0B 1D 29 05 11 0F 04 F4 10 22 02 21 EE 0B 0A 12 FA FC F5 DA FD 07 F8 E6 F6 F6 E7 E1 ED FF F3 F3 BE E0 0C 19 38 0F E6 13 B5 20 EF E4 FE E8 ED 1B 1E 10 F8 CD F9 39 26 29 17 F5 E7 DB 06 F3 B0 F0 E0 D9 F2 0E C9 E3 06 F4 F2 0A F4 0D 17 10 CB D7 05 1B 30 19 07 F3 FF F7 FE E6 DB E5 F9 E6 D4 BD 0A 0F 13 12 EB 11 EC 12 0B FB EB FC D9 E7 08 E3 17 0D FC D2 E5 DF F3 F6 F5 EE F3 CF EF 09 F6 14 0C 31 08 1B 17 F1 F5 1A F6 FC 03 19 FC 16 1C 16 F6 C4 E4 EC FB 1A 0A FB E4 EC E7 1C 06 E4 FA DE 0F 2A B9 B9 0E F3 05 31 08 D9 DA E9 EF 01 F9 E4 F8 F4 0F 06 07 05 F8 FF 19 01 F6 F0 E0 03 F6 08 E7 BF 11 0C 20 0C 02 08 06 12 05 0C 09 B8 D5 F4 D6 B4 03 10 E7 D4 E2 C2 C7 F3 13 E0 0C DB EF 20 16 ED F6 08 1A 1E 17 F4 F4 DB F7 05 10 12 07 F6 0B 14 04 D1 0A 04 20 C4 84 03 DA F0 DB F0 E0 DA 05 D5 F5 38 0D FF 0B 00 04 32 25 11 DB D5 E2 26 29 FC F4 F6 FA 0A FB ED F4 FB E9 12 F3 F8 06 FF F8 01 FA F8 2A 22 1E 1B 0A 03 03 F2 2F 1A B6 BA BC B9 F8 34 0D B2 B9 D7 BB 2E 40 14 94 F6 E7 DE 1D F6 1F F3 FE 2D 2C EB F3 1F FF 34 F4 FF E5 D0 C2 D8 F2 FD E5 E3 FC E1 01 D4 F8 0D 1A 12 F9 0F F9 E7 26 18 E8 EF 29 18 EF F8 18 D8 D8 10 F5 F4 F0 DC E5 F1 08 21 15 FC 2F 41 0B 13 2B 00 01 F4 BB 2F FC 18 D7 02 A2 80 80 EF FC E0 FD 04 F5 EE F7 FC 03 F9 06 16 EF 14 0F 09 02 FD C9 1C 10 0F EC 05 EF 0E 22 FE 07 00 01 0A 2D 1A 11 06 F9 17 07 08 E0 D1 E8 05 10 FE 1A E0 EB E6 F8 04 CD E9 E0 27 FE E6 DF C9 B6 D5 2F 11 0D D9 F0 98 0E 13 03 DF EC 1E FE F8 F9 04 F4 FD 02 15 FE F8 F5 FF FC 10 F8 02 CF EB 15 F3 10 F2 C3 80 A1 F8 13 11 38 B0 F6 C1 CE 20 FF 03 C7 FC E1 0B 08 03 AC FE 35 11 F9 12 EA EF 18 10 EF 09 1F 0A 2E 37 1E 03 13 F7 D4 E4 8B E7 F7 FE C5 E8 91 94 18 27 01 FD F5 17 EB EE FF F3 14 1A 11 1E E5 CC F6 EF 02 06 00 0E 15 C3 E1 F0 E6 F7 F1 18 D4 27 06 E5 10 1F 18 25 02 D8 1E E4 F9 F3 FC E3 07 0C 0D D3 B9 FD 07 0B FC 05 06 B3 FE F5 09 01 FE E6 0E F2 03 03 CA 00 FA 0E 05 00 F3 02 0E FC 08 07 12 EF 1E 43 1C FE 02 FA EE 03 06 C4 E1 01 E2 03 E5 02 F7 0B D9 FF F7 32 41 0F 13 07 DF 23 10 EE 05 D3 0D C4 F4 F0 E3 00 F6 B1 EF 00 FB 01 DC 0B 2C 12 05 03 09 1A 17 17 FD FF CE 25 F2 1A EA DE 09 09 13 FC 0E 0D 02 2B 11 10 0C B6 EF F8 D8 B5 FE 1F 0C E2 D1 A6 C3 FA 0A DF 19 F6 17 1E F3 1A 06 19 17 1D 17 ED F1 E9 04 0B E5 11 FD 08 10 D2 F4 BC 9D 00 1A 1A F4 EB B2 F3 D9 01 04 FB 1A E9 0F D4 B9 C8 DE 0B FD 16 E7 98 DE 07 01 10 1C 26 14 04 20 10 F2 0B 27 4A 4A 19 F7 F3 CC D6 88 BE F7 D7 15 1D 14 23 F8 07 06 EB 14 04 EE 10 E1 F4 FB 0A 18 FD F6 D0 E8 02 22 F9 E1 DE CB DE FE 07 EF EB E9 0E 09 0D 0B E8 F1 18 01
