00 ff ff 00 01 01 00 ff ff ff 01 00 00 00 00 ff 00 01 ff ff 00 ff 00 00 01 00 00 ff ff 00 ff 00 ff ff 00 00 00 00 00 00 ff ff 00 00 00 00 00 00 ff ff 00 00 01 00 01 ff 00 ff ff ff 01 00 ff ff 00 00 01 ff 00 00 00 00 00 00 fe ff 01 00 fd 01 00 fd 01 02 fb 01 03 fd fd 03 02 02 ff fd 01 00 fc 01 02 03 02 fe 01 03 fd 00 03 fd fd ff 00 fc ff 01 fd fe 00 01 01 fd 00 01 ff fe 01 00 fe 02 04 fd 03 06 fc 00 04 00 01 ff fe 00 ff ff ff ff fe fd fe ff 01 03 01 01 00 ff 01 03 ff 01 02 00 00 ff fe fd fc fe 00 01 01 02 01 fe fc ff 00 00 01 01 ff fe fe ff 01 00 01 03 02 01 ff fe fe 00 00 00 03 00 01 ff ff 01 ff fe 00 fe fe ff fe fd fe fe ff 00 02 01 01 01 fd fe 02 01 ff fd 01 01 00 ff fe ff 02 02 ff ff 03 03 fc fe 00 00 ff fc 01 02 01 f9 fc 02 fb fb fc 00 04 fd ff fd ff 04 01 fd 00 01 02 fc ff 01 00 fd fc 01 01 ff 00 ff 00 03 02 03 01 04 07 ff fe 01 00 fe ff 01 01 01 00 01 00 00 01 00 ff 02 02 01 00 01 00 03 02 fd fe 00 00 01 00 00 01 01 ff 00 00 fe fe ff fe fa fa fd fc fc ff 02 01 fe 01 03 ff 00 01 00 00 00 ff 00 01 fe fe 01 01 02 01 fe 03 02 fa fc ff 01 00 00 ff 00 ff ff 01 00 fe ff 00 02 02 02 fe ff fe 00 01 02 03 02 01 fe fe ff 00 fe fe 00 02 01 00 ff 00 ff ff ff ff 01 ff fe fe ff ff 02 02 02 05 03 fe fc fd fe 00 01 01 03 03 fe fd fd 01 00 ff 03 02 ff fe fd fd ff ff ff 00 00 02 00 00 ff ff fe 00 ff 01 01 02 00 ff 00 02 00 01 ff ff 00 ff 01 00 fe ff fe 00 01 01 02 ff fd 02 05 01 05 fe 01 fe fb fe 00 03 00 02 00 02 01 fe fe 02 03 ff 03 ff 01 00 fb 00 ff fd 00 fc ff fd 00 03 00 fd 00 fe 00 00 01 00 fe 01 03 02 00 01 ff fe 00 ff 01 01 ff 00 00 fe ff 00 00 02 02 02 01 01 00 fe 00 ff ff ff 00 fe fd fc fc fd ff 01 01 01 fe 00 fe fe 01 01 00 01 02 fe 00 fe fe ff 00 00 ff fe 00 fe fe fe 00 00 02 02 01 02 00 01 00 ff 00 01 01 02 01 01 01 fe ff 00 02 02 03 fe ff 02 fe ff ff 01 01 01 ff 00 01 fe fe 01 fe fc fb fc fd 00 00 ff 01 02 03 03 00 ff 01 00 01 00 01 00 01 fe ff 01 fe ff 01 02 02 04 fc fb 02 fd fc ff ff ff 01 ff ff 00 ff fe 00 01 00 ff 00 01 00 ff 01 00 fd 00 00 fc 01 00 fc 01 01 ff 00 00 00 01 ff ff 01 00 02 00 ff 02 00 00 02 01 fc fe 00 ff fe ff ff fd fe 00 01 01 00 02 00 fe 01 01 00 fe 01 01 fe 01 02 fd 01 01 00 00 00 ff 01 00 ff 01 00 01 ff fe ff 00 00 ff 01 00 01 01 00 fe 01 00 fc 01 00 01 01 ff 01 01 00 fe 00 00 ff ff 00 01 00 00 02 ff fe 01 01 00 ff 00 01 fe 00 02 01 00 ff ff 00 ff ff 00 00 00 01 00 ff 03 02 fc 01 02 01 00 fe 00 ff fe ff ff 00 00 01 01 00 00 00 00 ff 00 fe ff ff fe ff 01 ff 01 01 fe 00 01 01 02 01 01 01 00 01 ff 00 02 ff fd 01 00 fc 00 01 01 00 00 00 ff fe ff 00 01 00 01 00 fe 00 01 ff fc fc ff fc ff 01 00 01 02 fe 00 01 01 01 00 00 01 ff ff fe fe 00 02 ff 00 01 00 03 01 fe 00 03 03 fe 01 01 00 fe 00 01 02 00 ff 01 01 fe fd 00 00 fc fe 01 00 fd 02 00 ff 01 04 02 00 01 02 00 fe ff 01 00 01 ff 00 ff 02 01 fe 01 05 02 fc fe 00 ff ff ff ff ff 00 ff 00 01 00 00 00 01 02 fe 01 ff fd fe 00 ff fd 01 00 ff 01 ff fe 01 00 00 01 ff 02 01 fe 05 03 fb 05 02 f9 04 fe fb ff 01 00 00 ff fd 01 ff fe 01 02 fd 02 00 fb 02 ff fd fb 01 02 fd 02 03 00 00 00 ff 01 00 00 01 ff 01 00 fe ff 01 01 ff 01 00 01 01 00 fe fd 00 fd fe ff 00 01 00 ff ff 01 ff 01 01 00 00 00 01 01 ff 03 01 00 ff ff fd 00 ff 00 00 01 00 00 01 00 ff 01 00 00 01 00 00 01 ff fc fc ff fc fd 00 00 ff 01 ff 00 01 fe 00 01 01 01 00 00 ff 02 01 fd 00 02 00 ff 00 00 01 02 00 ff 02 00 01 01 01 00 02 fe 00 01 fe ff fe fe 04 00 fe 04 03 02 01 00 fe 00 01 fc fe 00 fe 00 ff fd 02 ff fc 00 01 00 ff 03 00 00 03 02 00 02 00 01 01 01 02 00 fe 00 01 ff 00