63 EC CA C5 DE 35 F0 2E 25 73 5A 91 41 80 19 91 B2 0D 39 D4 D4 A6 DB 16 F2 21 CD 62 A0 11 B0 06 47 3A 41 F8 60 C5 FF 93 31 46 0D 71 2A E1 C6 40 01 58 E1 41 21 B0 0A 02 EA 2F DE BE D9 12 56 13 E8 E1 E3 ED DF 11 20 F7 FD EF F6 2B 0B 20 11 FD EC 8C BF 80 17 0C C4 4F 10 DD C9 D8 1D F4 06 0A E6 0A ED 06 EA E1 22 2B F6 FF 1A 19 17 E5 E3 D7 F0 F6 05 F7 3E 31 3F 23 28 11 E9 D1 F3 AE F0 B0 02 CC 9D DA F0 DC D3 E6 FB FE 28 16 1D F6 24 14 00 0F 0B CD 2F 39 80 C7 A2 80 80 80 52 3E 7E 7F 7F 7F F7 16 00 02 02 28 81 B4 8B 05 16 09 F0 25 4C 9D A3 C7 08 0A 07 E1 0A 3A F3 C0 D5 28 2D 51 EC 24 F4 12 05 E7 23 4B F7 06 F6 FC DA EB 2C F8 E3 F8 FE 32 40 84 CE C9 8A D9 DB F5 2E 24 22 F4 EE CE 80 C2 B7 07 40 12 12 17 80 E6 D7 03 17 17 D9 DE D4 97 D5 17 FF 40 2D 24 CF 03 C9 F5 11 07 F7 02 3D 02 DD FD 34 47 39 34 4B 03 ED 15 04 09 CE D0 CC E9 09 D6 B4 86 B3 BD 0E 17 20 0F 22 F1 46 40 2C DE 18 E8 AA BF D6 04 D6 17 7F 6B 1B FB E2 80 24 1D 1A DD 18 C5 B6 D0 F2 52 27 51 09 0C B3 AC B9 F6 FB 38 2E CF FF E1 B0 F8 F6 5D 0F CD D6 BD 80 33 47 5C DC D5 E4 E0 E7 2C FD 0C 1F 42 13 F9 2F 0B FC AA CA 9D 0D 27 CB E6 0A D6 16 19 38 80 D0 5E DF C4 D9 68 7F 7F 05 0A BA F2 04 D2 F6 D3 DE 0F 27 B9 07 F9 09 0C 28 2E 5B 62 00 21 27 13 06 CB 1B C9 80 A3 25 2D 3C 0B 25 21 1D 33 2C 00 DB C2 B1 9B A5 E6 F9 19 F7 F3 C9 04 02 00 EB 32 33 C9 2B 10 BE 22 39 80 80 54 80 80 F7 01 21 E5 1B 1C E4 09 52 C5 FD 5B E1 FC 2F 3D EB 01 E0 DB 12 CD 2F F8 0A 04 20 D6 DE 15 AF CC BA 12 80 C4 DC 89 BE 4B 80 F4 F3 9B CB 3F 08 80 69 E7 28 0D FA 2A 10 01 46 2F 39 32 C8 29 28 94 1E E8 D1 80 C2 0A 80 81 9B 80 80 F8 33 2A D4 4D FF 9D 4A F0 E6 09 F2 B6 47 EE C7 4B E9 04 45 FD C8 5D E7 FE 39 F0 1F C7 C6 D6 8E BE F3 C7 DA FC 1D 27 08 22 34 14 27 0F FA 1F 23 E4 1C 0E AD 36 1A F1 12 26 04 40 39 E3 04 CF BF 80 E5 F9 AB FB FC 63 5B 1E 33 20 2F 39 22 D3 ED BC AE 1E 01 E3 1F FB B1 D3 AE AD 23 F5 E0 3C 36 F9 B9 02 FB 8E 8A B9 E5 9E 80 BB DE D5 09 21 2F F5 21 04 11 29 3F 2B 25 1A 33 34 EA F9 03 C9 4E B9 15 11 8C 4A E1 D0 1C E2 DD 9A E3 80 B4 C2 81 A7 32 C4 4D F1 E7 38 BB DD 41 18 CE 69 AB CB 45 A6 EB 20 DB C9 70 AC EC 30 D7 07 3A 0A D7 AE 20 D6 BF F4 F8 B7 31 2D E1 4D 02 F9 36 11 12 19 EC 35 40 CE 48 F9 E8 33 1E 29 3D B1 F7 44 B8 B2 09 2C 28 E0 04 11 9B 02 75 7F 21 36 01 D4 21 1A 8F EC 31 FC 2E 0E D4 E7 EC B3 BC F8 FB 0A DF CB 34 C7 F9 0F EF A3 D0 28 80 AF 7F F3 80 C2 CC 8A 52 43 91 29 FF F6 A0 28 45 EA E0 23 12 91 FC 59 A8 C3 54 C4 EF 30 FC 2F 2F 24 D9 8B A5 80 A9 8B 80 90 C6 F8 53 A9 FB 09 E6 27 16 AF E4 12 BE F9 08 13 37 09 B9 0B 2B CE 27 29 F6 4D 28 A5 A1 D1 FB D1 CD FC C1 A3 00 07 25 E1 1B 54 07 08 50 E4 16 4F B2 27 2A DA 18 26 10 40 F5 C3 21 1F A8 F3 15 26 A1 D3 7B 49 9B F9 4B 51 01 F0 94 00 18 EA B1 0B 0B 0A FB D2 EA 0B 08 EA 10 27 0F C3 91 11 0F C9 F5 39 18 1C 68 14 82 EA 61 12 DF F9 D4 E1 3A 85 9C 1A AA 80 C3 2C FE D2 1C 21 E8 B4 1A 18 AB E4 14 D8 29 35 54 06 F6 24 84 B4 80 CE 7E D2 F0 C3 C5 CF 07 F4 36 18 26 19 BA BF E8 5F 09 40 2A 2A EF BC 9C C9 26 1E 3C 19 19 05 91 F4 57 7F 0E 09 B4 23 BE 27 AF CC 80 E0 E6 F2 9D C0 E2 C0 DA E4 04 21 25 02 19 09 15 CD FF 37 CC 8C 13 75 0F 31 2E 4B B8 FA 7F 63 80 80 DF D1 05 E1 B6 AA 17 2C F6 1D DC 27 0C AE E2 2F 51 F6 3D F7 31 AD D0 F0 DE 19 AB FF 80 CF 7F 30 9F 3E 7F 49 F0 F2 48 06 29 EC 80 27 6B E1 D3 33 26 C5 D4 5C 2F 10 20 DE F8 2D 28 23 20 D2 FE B6 82 80 1B 13 36 61 7F 72 07 F8 00 FB 0A 02 D3 DC 08 10 FA 05 33 00 28 DC B7 2F FC D0 ED 04 DB E1 F2 E5 32 F9 16 43 14 32 0D C6 F7 13 ED B1 C4 C3 80 93 E1 AA E9 30 FE 00 13 1B 17 F4 0B EE
