00 00 00 00 00 00 00 00 00 00 00 00 00 00 00 00 00 00 00 00 00 00 00 00 00 00 00 00 00 00 00 00 00 00 00 00 00 00 00 00 00 00 00 00 00 00 00 00 00 ff ff 00 00 00 00 00 ff 00 fe ff 00 01 ff 00 00 ff 00 01 01 ff 00 00 00 00 00 01 00 00 00 01 00 ff 01 00 01 01 02 01 fc fd fe 00 02 01 fe fd fd fe 00 01 00 00 00 00 00 ff 00 ff 00 00 00 00 00 00 01 01 fe ff 00 01 01 01 fd fe ff fd 01 fe 00 00 00 ff fe 00 fd fe 00 00 01 01 00 fb fa fe 00 00 00 00 ff 00 00 00 00 01 00 01 00 01 01 01 01 01 00 00 01 01 00 00 ff fc fe ff ff ff 00 fe fc ff 00 01 fe ff 00 ff 00 01 ff ff ff 01 00 01 ff 01 01 01 00 00 00 00 00 00 00 ff ff 01 01 00 00 ff 00 00 00 01 01 00 00 01 00 ff fe 00 00 00 00 01 00 00 00 00 00 ff 00 00 00 01 ff 00 00 01 00 00 01 00 00 01 01 00 01 00 ff 00 01 fe ff fe fe fe ff ff 01 fe fe fe fc ff ff fe fe fc ff 00 fe 00 00 00 01 00 00 fe 00 00 00 00 00 00 ff 00 fe fe 00 00 ff 00 00 ff 00 00 00 00 00 00 ff 00 00 01 ff 01 ff 00 00 00 fe ff 00 ff 01 01 ff 00 01 fe 01 01 00 01 01 00 ff 00 00 00 01 01 ff 01 01 00 fe fb fe fe 00 00 01 01 01 01 00 01 00 00 ff 00 ff ff ff 01 ff ff 00 ff fe 00 ff fd fe ff ff ff ff 00 00 ff fe 00 01 01 01 00 00 01 01 00 00 01 01 00 01 00 00 00 ff ff 00 ff ff 00 00 00 ff fd 00 00 01 fe 00 00 00 00 01 02 00 00 ff ff ff 00 00 fe 00 01 00 ff 00 00 00 01 00 01 00 00 00 01 ff 01 00 01 01 00 00 00 ff ff 00 00 ff ff 00 00 ff ff ff 00 ff 00 01 00 ff 01 00 00 00 00 01 ff 00 01 00 00 01 01 00 00 00 ff 00 00 01 00 fd fe fe 00 00 ff fe fd fe ff ff ff 00 01 00 00 00 ff 00 ff 00 ff 01 ff 00 00 00 01 01 00 00 00 00 01 00 00 01 00 00 00 00 01 ff 00 00 00 00 01 01 fe ff 00 00 00 00 00 00 ff 01 00 ff 00 ff fe ff 00 00 00 00 00 00 00 00 00 00 00 00 ff 00 00 00 01 01 00 ff 00 00 ff 00 00 ff 01 01 ff 00 00 00 00 ff ff ff 00 01 00 ff ff 00 00 ff 00 01 01 01 ff ff 00 00 00 00 01 00 01 00 01 ff 00 01 01 01 01 00 ff ff ff 00 00 fe ff 00 00 ff ff ff fe 00 00 01 00 ff ff 00 00 02 fd fc ff fe 00 fe ff 00 00 00 01 00 ff ff 00 ff ff 00 00 ff 00 ff ff 01 01 00 01 01 01 01 01 01 00 00 01 00 01 00 01 ff 00 ff ff 00 00 00 00 01 ff fe fe fe fe 00 00 ff 00 00 ff ff ff 00 00 00 00 00 00 ff 00 00 00 ff 00 ff 00 01 00 ff 00 01 ff 01 00 00 fe 01 01 ff 01 00 00 ff 00 00 00 00 01 00 00 fe fe 00 00 ff 00 00 ff 00 01 01 fe ff 00 00 00 01 02 00 00 00 00 01 01 00 fe 00 03 00 00 01 00 00 00 01 ff 00 00 00 00 03 00 fe fe ff 02 00 00 fe fc ff ff 00 00 00 00 00 00 00 00 00 00 00 00 00 00 00 00 00 00 00 00 00 00 00 00 00 00 00 00 00 00 00 00 00 00 00 00 00 00 00 00 00 00 00 00 00 00 00 00 00 01 01 02 01 01 00 00 01 00 01 00 01 ff 00 01 01 00 00 00 00 fe 01 ff ff 01 01 01 ff ff fe fe 01 00 ff 01 00 ff ff 00 00 01 02 00 00 01 01 01 01 ff 01 ff 00 01 00 00 01 00 00 ff 00 00 00 ff ff 00 fe 01 02 01 00 01 00 00 01 ff ff 00 ff 01 00 00 ff 01 01 01 00 01 00 fe ff ff 00 00 ff 01 01 00 00 01 00 00 00 00 00 00 00 02 ff ff 00 00 00 00 00 01 01 00 ff 01 00 00 ff 00 ff fe 00 01 02 03 00 00 01 01 01 01 01 01 00 01 ff 00 00 00 03 00 ff 01 01 00 00 ff 00 00 00 00 01 01 00 01 ff ff 00 00 00 00 01 ff ff 00 00 fd 00 00 00 00 00 00 ff 00 01 00 01 00 00 00 00 00 01 01 00 ff 00 00 ff 01 ff 01 ff fe fe 00 00 01 00 ff ff fe fe ff fe fd 00 ff fd fc fe 00 01 02 ff fb fc 00 03 ff 01 00 fd ff 01 01 00 01 00 ff 01 00 00 fe 00 ff ff fe ff 01 01 01 01 01 02 00 00 01 fe ff 00 01 01 00 00 00 ff 00 00 00 ff 00 00 01 01 fe fe 00 00 00 ff fe 00 01 00 01 00 ff fe fc ff ff 00 00 01 01 03 ff 01 01 01 00 02 02 01 01 01 00 ff 01 00 00 00 00 01 01 00 00 00 01 01 01 00 00 00 01 01 01 02 00 02 00 ff 01 00 01 00 00 00 01 00 00 00 00 00 01 00 00 01 00 00 ff 02 00 00 00 01 01 ff ff fd fd fe ff ff 00 ff fe ff 00 ff ff 00 ff 00 00 fe 00 ff 00 00 00 01 ff 00 00 00 01 00 00 fe ff 00 00 01 ff ff 00 00 01 01 00 00 00 00 00 01 01 00 00 00 00 00 00 01 00 00 00 00 ff ff 01 01 01 00 00 ff ff 01 00 00 01 00 ff 00 00 00 00 00 00 ff 00 01 00 01 00 00 01 01 01 00 00 00 00 00 01 00 00 ff ff 00 00 00 01 00 ff ff ff ff fe 01 ff 00 00 ff ff ff 00 ff ff 01 00 ff ff ff ff 01 00 00 00 01 00 01 01 ff 00 01 00 ff 01 00 00 00 ff ff 02 01 01 00 00 ff 00 00 01 ff ff 00 00 00 01 02 01 ff 00 fd 00 01 ff ff 00 ff 00 00 01 ff 00 01 ff ff 00 01 00 00 00 01 00 00 ff 00 00 ff 00 01 00 00 ff 00 ff ff 01 00 ff ff ff 01 00 00 fe fe fe ff 01 00 00 00 fe 00 00 01 01 00 ff 00 00 01 00 00 00 03 03 01 01 00 01 01 02 02 01 01 01 01 01 00 02 01 01 01 00 00 fd 00 00 00 01 01 02 01 01 00 00 ff 01 00 02 01 ff 00 ff ff 02 02 00 ff 00 ff ff 00 00 00 00 01 ff 00 00 ff 00 ff 00 01 01 fe 00 01 01 01 ff ff ff ff 01 01 01 00 00 ff 00 01 02 00 ff fe 00 00 01 ff ff 02 ff ff 00 00 00 ff 00 ff 00 01 00 00 ff 00 01 01 01 00 01 00 00 02 01 00 00 01 00 00 00 02 fd ff 01 00 01 00 00 ff ff 01 00 ff 00 ff 02 02 01 ff ff 00 fe 00 01 ff 01 ff 00 00 01 00 01 00 00 00 00 00 00 00 00 00 00 00 00 00 00 00 00 00 00 00 00 00 00 00 00 00 00 00 00 00 00 00 00 00 00 00 00 00 00 00 00 00 00 00 00 00 00 00 00 00 00 00 00 ff 01 ff ff fd 00 01 ff ff 00 01 01 ff fe ff fe 00 01 01 00 ff ff fd fe ff ff ff 01 01 01 ff ff 00 01 01 00 01 00 01 02 ff 00 01 00 00 ff 00 00 00 00 00 ff 00 00 00 00 ff 00 00 ff ff 00 ff 00 00 ff fe 00 00 ff 01 01 01 00 00 01 01 01 01 01 02 02 00 00 ff 00 01 00 02 02 ff fd ff fe 00 00 00 ff 00 00 00 00 01 00 00 00 00 01 00 00 00 01 03 02 02 00 ff ff 00 02 00 02 00 ff 00 00 fe fe 00 00 00 00 ff fe 00 ff 02 02 00 00 00 01 03 02 00 00 ff 01 01 01 00 00 00 00 00 02 01 00 00 ff 00 ff 00 ff ff 00 ff 00 fd fe 00 ff 00 00 01 00 00 01 01 01 00 01 ff ff 00 02 01 01 00 01 01 02 01 ff ff 00 03 02 01 ff ff 00 00 02 00 00 ff fe fe 01 01 02 00 fe fd ff ff 01 ff ff ff 02 02 00 ff ff 00 00 02 02 00 ff 00 ff 00 02 01 fd fe 00 00 00 00 00 00 00 00 ff ff 00 00 00 01 00 01 fe ff 01 00 00 ff 00 00 01 01 00 00 00 01 01 02 01 00 00 01 01 01 01 01 00 ff ff 00 00 00 01 00 01 ff fd fe ff 00 00 00 01 02 01 01 01 00 02 01 ff ff fe 00 01 01 01 01 00 fe 01 00 01 01 ff ff 00 00 00 ff 00 00 00 01 01 01 00 01 01 00 01 00 00 00 00 00 00 00 00 ff 01 01 02 fd 00 00 00 ff 00 01 01 00 fd 00 ff 00 01 00 ff ff ff fe ff ff ff ff 01 00 ff fe ff 00 02 02 00 00 00 00 01 01 01 ff 01 01 00 00 ff ff 00 01 00 ff 00 fe 00 00 ff ff 00 00 00 00 00 ff ff 00 01 00 00 00 ff ff ff ff 00 00 00 00 01 00 00 01 ff 01 01 00 00 01 01 00 00 ff fe 00 fe ff 00 00 00 00 ff 01 fe 00 00 ff 00 00 01 00 ff ff 00 ff 00 01 00 ff 00 ff fe 00 fe 00 00 01 00 01 00 00 00 00 00 00 00 00 01 01 00 00 00 ff ff 00 ff ff 00 00 01 00 ff fe ff 00 00 00 00 ff ff 00 01 00 00 00 00 01 00 ff ff ff ff 00 00 01 00 00 00 01 00 00 00 02 01 01 00 00 ff 00 00 00 00 00 fe 00 00 ff 00 00 00 00 ff ff 00 ff 00 00 00 00 ff ff 00 01 00 00 00 ff 01 01 00 00 00 00 00 01 00 ff 00 00 00 ff fe ff ff 01 02 02 00 00 ff ff ff 02 01 ff 00 01 00 ff ff ff 01 00 ff ff ff 00 00 00 01 01 00 00 00 01 00 00 ff fe ff 01 01 00 01 01 00 00 00 00 ff 03 02 00 fe 00 ff ff 02 00 ff ff ff fe 00 00 00 00 ff 00 01 00 00 00 01 00 fe 00 01 00 ff 00 00 ff 00 01 ff 00 00 00 00 00 01 00 00 01 00 00 ff 01 01 01 01 00 00 ff 00 00 00 00 fe ff 00 00 00 00 00 00 00 00 01 ff ff fe 02 01 00 00 01 00 01 01 00 ff 00 00 ff fe ff 00 ff ff ff fd fe 00 ff ff 00 00 00 00 00 ff 00 ff 01 00 ff fe 00 00 ff 00 00 00 00 00 00 00 00 00 00 00 00 00 00 00 00 00 00 00 00 00 00 00 00 00 00 00 00 00 00 00 00 00 00 00 00 00 00 00 00 00 00 00 00 00 00 00 00 00 01 00 ff ff ff fd 00 00 01 01 01 ff 00 00 00 ff fe ff 00 fe ff ff fe 00 00 00 00 fe 00 00 ff 01 00 00 ff 01 00 ff 00 ff ff ff 01 ff ff fe 00 ff 00 00 00 ff 01 00 00 00 00 00 00 00 00 ff fe ff 00 01 00 00 ff fe 00 00 00 01 00 01 00 00 00 00 00 ff fe ff 00 01 01 00 00 00 ff 01 02 04 03 01 00 ff 00 00 00 00 00 00 01 00 00 00 00 00 00 00 00 02 ff 00 00 ff ff 01 02 00 00 00 01 00 00 02 01 01 01 00 00 01 02 01 00 01 ff ff 00 ff fe fd fc 02 ff 00 00 01 02 01 00 00 01 00 00 00 00 00 ff 00 fe fe 00 00 00 ff fe fd fe 00 01 00 00 00 00 ff 02 00 00 ff 01 00 00 01 ff fe ff 00 01 00 00 ff 00 00 ff ff 01 02 01 fd fe 01 01 02 01 ff fc fd 01 02 02 01 00 fe fe 00 01 01 02 01 fd fc ff 00 01 01 ff fd ff ff ff 00 01 ff fe ff 01 01 02 01 02 01 fe 00 02 00 00 00 00 01 01 00 ff ff fe ff 00 01 01 ff 00 01 00 ff 00 00 01 02 00 fe 01 fe fe ff 00 00 00 ff ff 00 00 01 00 01 00 ff 00 00 01 02 01 00 00 ff fe ff 00 00 ff 00 00 00 fe ff ff ff 00 01 02 ff ff 00 ff 01 01 00 00 02 01 00 ff ff 00 00 00 ff 00 ff 00 00 00 00 00 00 ff 00 01 00 00 00 00 00 ff 01 02 fe 00 00 00 00 01 02 00 ff fd 00 01 00 01 00 fe fe ff 00 ff 00 00 00 01 ff ff ff 01 00 ff fe 00 00 ff 00 ff ff 01 01 00 01 00 00 00 00 00 00 00 ff 00 fe 00 00 00 00 00 00 01 00 00 fe fe ff 00 ff 00 00 ff ff 00 00 ff ff 00 00 00 00 00 00 ff 00 00 00 ff 00 00 00 00 00 00 ff 01 00 00 01 00 00 ff ff ff 00 00 00 01 00 00 00 ff 01 fe 00 00 01 ff ff 00 ff ff 00 00 00 01 01 00 ff 01 00 ff 00 01 00 00 01 01 00 00 00 00 00 00 ff 01 00 00 00 00 00 00 fe ff 00 00 ff 00 00 ff ff 00 ff ff 00 01 00 ff 00 ff 00 02 00 00 ff 00 ff fe ff 00 00 00 00 00 00 00 01 02 ff 00 00 00 00 00 01 00 01 00 00 00 01 01 ff 01 00 00 00 00 01 00 01 ff 00 00 00 ff ff 01 ff ff 01 01 00 00 00 01 01 02 01 00 00 02 01 00 00 ff ff 01 ff 03 01 fc fd 00 ff 00 00 01 ff ff ff 00 ff ff ff ff 00 00 00 00 ff ff ff 01 00 00 01 00 00 ff 00 ff 00 fe fe fe ff 00 00 01 fe fe fd 00 01 00 01 00 ff ff 00 00 01 00 00 00 00 00 01 00 01 00 00 ff 00 00 fe fe 01 00 ff 01 01 01 fe ff ff 00 01 ff fe 00 ff ff ff ff 00 00 ff 00 00 00 00 00 01 00 00 00 00 00 01 00 00 00 00 00 00 ff 00 00 ff ff 00 01 00 00 00 00 01 ff fd 00 00 00 00 02 02 fe ff 01 00 ff 01 01 00 ff 00 00 ff 01 ff fd ff 00 00 ff 00 ff ff ff 00 00 00 00 00 00 00 00 00 00 00 00 00 00 00 00 00 00 00 00 00 00 00 00 00 00 00 00 00 00 00 00 00 00 00 00 00 00 00 00 00 00 00 00 00 00 00 00 00 00 00 ff 00 ff 00 01 00 00 01 01 02 02 01 01 00 01 00 01 00 01 01 00 01 00 00 ff 00 00 01 01 00 ff 00 00 ff ff 00 ff ff 00 01 02 ff 00 01 01 00 01 01 00 ff ff 00 00 00 00 00 01 ff 00 ff 00 01 01 00 00 00 ff 00 00 ff 00 00 ff ff 00 ff 00 00 00 00 00 01 02 01 00 01 00 fe fe 00 01 01 01 ff ff ff 00 00 ff 00 00 00 00 00 01 02 00 01 00 ff 00 00 00 ff ff fd ff ff ff ff fb 01 ff fe 00 00 00 ff 00 01 fd ff 00 01 00 fd ff ff 01 02 ff ff 00 ff ff fe 00 00 00 ff ff ff 00 00 01 01 00 00 fe fe 01 01 01 01 00 00 01 01 00 02 01 02 00 01 00 00 01 02 00 00 00 00 00 00 00 ff 00 01 ff 00 00 ff ff ff 00 00 ff ff fc fb ff fe fe 01 00 fd fd fe 00 02 01 fe fe fe ff ff 01 00 00 00 01 01 02 00 00 01 ff 00 01 02 00 01 01 00 ff 00 01 01 01 00 ff 00 00 ff 01 00 ff 00 00 00 ff 01 ff ff 00 00 01 01 00 ff 00 01 01 01 01 ff 00 01 01 fe 00 00 00 00 00 00 00 fe 01 01 00 01 00 00 fe ff 00 ff 00 00 01 01 01 00 ff ff ff ff fe ff ff ff 00 fe fd ff 00 00 00 fe fe ff ff 00 00 ff 00 00 00 ff 00 00 00 01 00 00 01 01 ff 00 01 ff ff ff 00 00 00 ff ff 00 00 01 00 ff ff ff fc 00 00 00 01 01 01 fe fd ff 00 01 00 ff fe fe fe 02 00 01 00 01 ff 01 01 01 01 01 00 00 00 ff 00 00 00 00 00 01 00 00 ff ff 00 00 01 00 00 00 ff 00 00 01 00 00 00 01 01 01 01 00 01 00 01 00 00 01 00 00 00 00 00 00 01 ff 00 00 ff 00 00 00 ff 00 ff ff 00 01 01 ff 00 00 01 00 00 fe 00 00 00 ff 00 01 00 00 01 00 00 00 ff ff 00 01 01 01 fe 00 01 01 01 01 00 ff 00 00 ff 00 00 00 00 00 00 00 ff ff ff ff 00 00 00 00 00 00 00 00 ff ff 00 ff ff 00 ff 01 00 00 00 00 01 02 02 02 01 ff 00 00 00 01 01 ff 00 01 00 ff 01 ff 01 00 01 00 00 01 ff 00 00 00 01 00 00 ff 00 00 ff 00 00 ff 00 ff 00 ff 01 00 01 01 01 00 00 ff ff 00 01 02 01 00 ff ff ff fe 00 00 00 01 00 00 00 01 ff 01 00 00 00 ff 01 ff ff fd 00 00 01 01 01 ff 02 01 00 02 00 fe 00 00 01 ff 00 00 01 02 03 02 01 01 01 00 01 01 01 01 00 ff ff 00 ff 00 00 fe ff ff 00 00 00 00 ff 00 00 01 01 01 00 ff ff 00 01 00 01 ff 00 00 00 fe ff ff 00 01 00 ff 00 00 01 01 01 ff 00 01 00 01 01 ff 00 01 01 ff 01 01 01 01 01 00 00 01 00 00 00 00 ff 01 00 fe 00 00 ff 00 00 01 00 00 00 fe 01 00 00 00 00 00 00 04 02 01 01 00 00 00 00 01 00 01 00 ff fe 00 00 00 00 00 00 ff ff 00 00 00 00 00 ff 00 01 01 00 01 00 00 01 02 00 ff 00 00 00 00 00 00 00 00 00 00 00 00 00 00 00 00 00 00 00 00 00 00 00 00 00 00 00 00 00 00 00 00 00 00 00 00 00 00 00 00 00 00 00 00 00 00 00 00 00 00 00 00 00 01 01 01 00 00 00 01 01 fe fc 00 00 01 01 00 ff fe 00 ff 01 01 00 00 00 02 00 ff 00 00 00 00 00 01 00 00 ff ff 00 02 ff ff ff fe ff ff 02 00 ff 00 00 00 00 00 00 00 00 ff 01 01 01 ff fe ff 00 01 01 01 fe ff ff 00 fe ff 01 00 00 ff 00 00 ff 00 ff 01 02 01 01 00 ff 00 fe 00 02 03 02 00 00 00 00 ff 00 ff ff ff 00 ff ff ff ff ff fd ff 00 01 01 00 00 01 03 00 01 01 01 01 00 02 02 00 01 00 00 01 02 00 00 00 fe ff 00 00 fe fe ff ff ff 00 00 ff 00 00 01 00 ff ff 00 00 00 00 00 ff 00 01 00 01 00 01 00 00 00 00 00 00 01 00 ff 00 ff 00 ff 01 01 00 00 00 00 ff 00 00 00 00 00 00 ff 00 ff 00 ff ff 02 02 01 fe fe fe 01 03 02 01 fe fe fe 01 02 02 02 00 01 01 01 00 fe ff 01 01 01 00 ff fe fe ff 01 01 00 00 ff ff ff 00 01 02 00 00 00 00 ff ff 00 01 00 00 ff 00 00 00 01 01 01 ff ff ff ff fe 00 01 00 fe ff fe fe ff 02 01 ff ff 00 00 00 00 00 00 01 01 00 01 ff 00 00 ff 01 01 02 00 00 00 00 00 00 ff 00 00 fe 00 02 02 01 00 ff fe ff 02 03 02 00 00 01 00 00 ff ff 00 00 01 01 00 ff fe ff ff 00 00 00 00 ff ff 00 00 00 00 00 00 00 00 00 00 01 00 00 00 01 00 ff ff 00 ff 01 00 00 00 00 01 01 02 ff 01 00 00 01 01 01 00 ff ff ff 00 ff ff ff 00 00 00 00 00 00 00 00 00 00 00 00 01 00 ff 00 01 00 00 00 ff 00 01 01 00 ff 00 ff 01 00 01 00 ff 00 ff 00 00 01 00 00 ff 00 00 ff 00 00 00 01 00 00 ff 00 00 00 02 00 ff fe fe ff 00 01 00 00 00 01 00 01 00 ff 00 00 ff ff ff 00 ff 00 00 00 ff ff 01 00 01 01 01 00 00 00 00 ff ff 00 01 00 01 00 00 00 00 00 00 00 00 ff 00 00 00 ff 01 00 ff ff 02 01 01 01 00 01 01 00 01 00 01 ff 01 00 00 ff ff 01 ff ff 00 00 ff ff ff ff 00 ff ff 00 00 00 ff 00 00 01 00 00 02 00 ff 00 ff 01 01 01 00 ff ff ff 00 00 01 ff 00 00 00 00 ff ff fe ff 00 00 01 00 ff ff 01 00 01 01 01 00 00 01 01 01 00 ff 00 ff 00 00 00 ff ff 01 00 ff 01 ff fe fd 00 00 00 fe ff 01 01 ff 01 00 01 ff ff 00 00 00 00 01 01 fe fd ff 00 ff 00 01 00 ff 00 ff 00 ff 00 00 00 01 00 01 00 00 00 00 01 00 ff ff ff 00 00 02 00 ff 00 01 01 00 00 00 01 00 00 01 02 01 ff 00 01 ff fe ff 00 ff 00 00 ff ff 00 00 00 ff ff 00 00 00 00 ff 00 00 01 01 01 00 00 00 00 00 00 02 00 00 01 00 00 00 01 ff 00 01 00 ff fe ff ff ff fe 00 02 00 ff fe 00 01 ff 00 00 00 00 01 01 00 00 00 00 00 01 00 ff ff 00 00 00 ff 00 ff ff ff 00 00 00 00 00 00 00 00 00 00 00 00 00 00 00 00 00 00 00 00 00 00 00 00 00 00 00 00 00 00 00 00 00 00 00 00 00 00 00 00 00 00 00 00 00 00 00 00 00 00 00 01 02 01 01 01 01 00 01 01 ff ff 00 00 00 01 01 ff fe fe 00 00 01 00 00 ff 00 00 ff ff 01 01 00 00 ff 02 ff 00 01 00 fe ff 00 00 fe 00 00 fe 00 fe 01 01 00 00 00 00 00 ff 00 ff ff 00 00 ff 00 00 00 01 02 02 01 01 00 00 01 00 00 00 00 fe ff 00 ff 00 ff ff fd fc 00 01 fe ff 00 ff fe ff ff 00 00 01 01 00 00 ff 00 00 00 ff fd fe 00 00 ff ff fe fe 01 02 02 01 00 fc 00 01 02 01 00 00 fc fe 00 00 00 00 00 01 fe 01 ff fe ff 00 01 02 00 00 01 00 00 00 00 ff ff ff 00 00 00 00 ff 00 00 01 00 ff ff ff 00 00 00 00 ff ff ff 00 00 ff ff 01 00 00 00 00 01 00 00 00 01 01 00 00 00 ff 00 00 00 00 ff 00 ff ff ff ff 00 02 ff fe fe ff 00 00 00 fd fd fd 00 01 00 fc 00 fd fc 00 00 fe ff 01 ff fe ff 01 fe 00 00 ff 00 01 00 01 ff 00 fe fd 02 02 fe ff 00 02 01 01 00 01 00 00 00 00 01 00 00 ff 00 00 00 01 00 ff 01 ff 00 ff 01 ff fe 00 00 00 ff 00 01 00 ff 00 00 00 fe 00 00 ff fe 00 ff fd ff fe 00 00 00 00 01 01 01 01 00 ff 00 ff 01 01 01 00 fe 01 00 02 02 00 ff fc fe fe ff fe ff 00 ff fe ff 00 01 00 01 00 01 01 00 00 00 00 ff 00 00 00 00 00 02 01 00 03 00 00 00 00 01 ff ff 00 00 00 00 00 fd fd 00 00 ff 01 00 fe 00 00 00 fc 01 01 00 00 00 00 01 00 00 01 01 00 ff 00 ff 00 ff 00 00 00 fe 00 01 01 01 01 01 00 00 00 00 ff 00 01 00 00 00 00 ff fe 01 00 00 00 01 00 00 00 00 00 00 01 00 00 00 00 00 ff 01 ff fe fe ff 00 00 ff fe ff ff 00 00 01 01 01 00 01 00 00 00 ff ff 00 01 01 00 00 00 fe ff 00 00 00 00 00 ff 01 00 00 00 01 01 00 00 00 00 ff 00 01 01 00 ff ff 00 ff ff ff 00 00 ff 00 01 01 01 01 02 01 00 00 01 01 00 01 ff 00 00 01 00 ff ff ff 00 00 01 00 ff ff 01 ff 00 00 00 ff ff 00 00 00 01 00 ff ff ff 00 ff ff ff ff ff ff 01 00 00 ff 00 00 00 01 00 ff ff ff 00 00 ff ff ff 00 01 01 00 00 ff ff 01 01 00 01 00 00 ff 00 01 00 01 00 fe 00 00 00 ff ff 00 00 00 fd 00 00 ff 00 02 03 01 00 01 00 ff 02 03 02 00 00 ff 00 01 01 01 ff ff 00 00 02 00 01 ff 00 00 00 01 00 00 01 00 ff 00 00 00 ff ff 00 ff 00 ff 00 ff ff 00 ff 00 00 01 00 01 01 00 01 00 00 00 00 00 ff 00 00 01 01 00 00 01 00 01 01 01 00 ff 00 00 00 01 00 00 ff ff 00 00 00 ff ff 00 00 ff ff ff ff fe fd 00 00 02 02 02 00 00 00 00 02 01 00 ff ff ff ff 01 00 01 01 00 01 ff ff ff 01 00 00 01 00 00 00 00 00 00 00 00 01 01 ff 00 00 ff fe 00 00 ff ff 00 ff 00 00 00 00 00 00 00 00 00 00 00 00 00 00 00 00 00 00 00 00 00 00 00 00 00 00 00 00 00 00 00 00 00 00 00 00 00 00 00 00 00 00 00 00 00 00 00 00 00 00 00 ff fe ff 01 00 00 00 01 00 ff 00 00 00 ff ff 00 00 ff fe ff fe ff ff 00 00 fd ff ff ff ff ff ff fe ff ff ff 00 00 ff 01 00 00 00 01 02 01 ff 00 ff ff 00 ff ff ff 00 01 01 00 00 00 ff 01 00 00 00 01 03 00 00 01 01 ff fe 00 01 ff 01 01 00 01 02 01 01 01 00 ff 00 fe ff 00 00 00 00 fe ff 00 00 ff 00 00 00 ff ff 00 01 02 00 00 00 00 00 02 03 01 00 00 00 00 02 02 ff 01 00 00 00 01 01 ff 00 01 ff 00 fe fc 00 00 ff ff 00 00 01 00 ff 01 00 00 00 ff ff ff 00 00 00 00 00 01 00 ff ff 01 02 00 00 01 00 fe 00 fe fe ff 00 00 fe fe fd ff ff 00 01 ff 01 ff 00 00 ff 00 ff 01 ff 00 01 00 00 ff 00 00 ff 00 00 00 00 00 00 02 00 00 ff fe 00 00 02 01 00 ff ff 00 01 01 fd 01 01 00 ff 02 00 ff 01 01 00 ff 00 fe ff ff ff ff 01 00 ff fe ff ff 00 00 fe ff ff 00 fe fe 00 00 00 ff 00 00 00 00 ff 00 ff 00 01 ff 01 ff ff 00 00 00 01 01 01 00 ff ff 01 01 00 01 00 ff ff fe 00 01 01 01 01 00 01 00 00 00 00 00 00 00 00 00 01 02 04 01 01 00 00 01 02 02 ff 02 00 01 01 01 00 00 ff 00 01 00 00 ff 01 00 00 ff ff fe fe ff 00 00 00 00 ff 00 00 00 ff 00 fe 00 fe 01 00 00 01 02 02 01 01 fe ff 00 01 00 02 01 ff fe 00 ff ff ff 00 ff ff ff ff ff 00 00 ff 00 00 fe ff ff ff ff ff 00 00 ff 00 ff ff ff 00 ff ff 00 ff 01 00 00 00 00 00 00 00 ff 00 ff 00 00 01 01 ff 00 00 00 ff 01 00 ff 00 00 ff 00 00 ff ff 00 00 00 00 00 00 00 00 00 01 01 01 01 00 00 00 00 00 ff 00 00 00 00 00 00 00 ff 00 ff 00 ff 00 01 00 fe 00 ff 00 00 00 ff fd ff ff 00 ff ff 00 ff 00 ff 00 ff 00 ff ff 01 00 01 01 01 00 ff 00 ff ff ff ff ff ff 01 00 00 ff 00 fe ff ff ff 00 01 01 01 ff 01 00 ff 00 01 01 ff 01 00 ff 00 01 01 00 ff 00 00 01 00 00 00 00 01 00 01 01 ff 00 00 ff ff ff fe 00 00 00 01 01 01 00 ff ff 00 01 01 ff 00 00 00 01 00 ff fe ff 00 ff 00 ff 00 ff ff 01 01 01 00 ff ff 00 01 ff ff fd fd 00 01 01 00 00 00 fe ff ff 00 fe 01 00 00 00 01 00 00 00 ff 00 00 01 00 ff 01 00 02 00 00 01 ff 03 02 01 00 00 00 00 00 00 01 01 ff 01 ff ff 01 01 01 01 01 ff 00 00 ff 00 00 fe ff ff 00 00 00 00 01 00 00 00 ff 01 01 01 00 01 ff 00 00 01 00 00 00 00 ff 00 01 01 00 00 00 00 01 01 ff 00 00 01 01 01 01 01 00 00 00 ff 00 ff 00 00 00 01 02 ff ff 00 01 00 00 00 01 ff 00 00 00 00 01 02 00 00 00 ff 02 01 00 00 01 00 ff fe ff 01 01 00 ff 00 00 01 01 01 00 01 00 00 00 00 00 00 00 00 00 00 00 00 00 00 00 00 00 00 00 00 00 00 00 00 00 00 00 00 00 00 00 00 00 00 00 00 00 00 00 00 00 00 00 00 00 00 00 00 00 00 00 fe 00 01 00 01 00 ff ff ff 00 01 01 01 01 00 02 ff 00 ff ff 01 01 01 00 ff 00 00 00 01 01 01 01 01 ff 01 01 00 00 ff ff 00 00 00 00 ff 00 fe 00 01 00 01 00 00 00 00 00 01 01 00 00 00 00 00 00 00 fe ff ff 01 00 ff 00 02 00 fe 01 01 00 00 00 fe fe 00 00 fe ff 00 00 ff fe fd fb fb fc ff 00 00 00 00 01 00 00 00 ff ff 00 00 01 01 00 01 fe ff 00 fe 00 00 00 ff ff 00 00 01 00 ff fd fd ff 01 01 00 ff fc 00 ff ff 00 00 00 01 00 fb fd ff ff ff 00 00 00 00 01 00 ff 00 00 00 00 01 01 01 01 01 01 fe 00 ff 00 02 02 01 00 00 ff ff 00 00 ff ff 00 00 fe 01 00 00 ff 00 ff 00 01 00 00 00 01 01 00 ff 01 ff fe 00 ff ff ff 00 00 00 01 01 ff ff ff ff 01 02 00 01 ff ff ff 01 00 fe 01 fe fe ff 00 ff fe 01 00 00 01 01 00 ff ff fe 00 01 01 00 ff 00 00 01 00 ff ff 00 fe 01 01 00 00 00 00 01 00 01 00 01 01 00 00 00 00 01 03 01 fe 01 01 01 00 00 ff fe 00 ff ff 00 01 00 ff 00 ff ff ff ff ff ff 00 ff 00 fd fd ff 00 ff 00 ff ff fe 01 00 00 00 fe fe ff ff ff 00 ff ff ff 01 01 01 00 ff ff 00 fe ff 00 00 ff ff ff ff ff 00 00 00 00 00 00 00 00 00 00 ff fe 00 00 00 ff 00 ff ff ff 02 01 00 00 01 00 ff 00 ff 01 01 01 00 00 00 00 00 01 00 ff 00 01 ff 00 01 00 00 00 ff ff 00 01 00 00 00 00 01 00 00 00 00 00 01 00 00 00 ff ff 00 00 00 00 00 01 00 ff 00 01 00 00 00 01 ff ff 01 ff 00 00 00 00 ff 01 ff 00 00 00 00 00 ff 00 01 00 00 00 00 ff 00 00 00 00 00 01 00 00 00 00 00 00 00 01 00 00 ff 01 ff 01 ff 00 00 01 01 01 01 01 00 00 00 00 00 00 01 ff 00 00 00 00 ff 00 00 00 00 00 ff 00 01 00 00 00 ff 00 00 00 00 00 00 00 00 00 00 ff 00 01 00 ff 00 00 01 00 00 00 00 00 01 ff 01 01 01 ff ff 00 fe 00 00 ff ff 01 00 ff 00 00 00 00 00 ff 00 01 01 01 00 00 01 00 00 00 00 00 00 00 01 00 01 02 00 01 01 00 01 02 01 00 00 00 00 00 fe 00 01 01 00 ff 00 01 01 00 ff ff 00 01 00 ff 00 ff 01 00 ff ff 00 00 00 00 00 00 ff fe 00 00 00 00 ff ff ff 00 01 00 00 fe 00 00 00 00 01 ff 00 01 00 00 ff 01 ff ff ff ff 00 01 01 ff 00 ff 00 00 00 fe 00 01 00 00 00 00 00 00 00 00 00 ff 00 00 00 00 00 ff ff 01 00 00 00 00 00 ff 00 ff 00 01 01 00 ff ff ff 00 00 00 ff ff 00 00 00 00 00 00 00 ff 00 00 ff ff 00 01 00 00 00 fe 00 ff 00 01 00 00 00 00 ff ff 00 00 01 00 00 00 00 00 00 00 fe ff 00 01 00 ff 00 00 00 00 00 00 00 00 01 00 00 00 ff 00 00 00 00 00 00 00 00 00 00 00 00 00 00 00 00 00 00 00 00 00 00 00 00 00 00 00 00 00 00 00 00 00 00 00 00 00 00 00 00 00 00 00 00 00 00 00 00 00 00 00 ff 00 fe fc ff 00 fe ff fe fe ff fe 00 00 00 01 00 ff 00 02 01 01 00 01 01 00 00 00 00 00 ff 01 01 00 00 ff ff 00 00 02 02 00 ff 00 01 01 01 02 00 ff 01 00 00 00 00 00 00 00 00 00 ff 00 01 00 00 00 ff fe 00 ff ff fd 00 02 00 ff 00 fe fe 00 01 00 01 00 01 01 01 ff ff 00 01 02 02 01 00 ff 00 00 01 01 00 00 00 ff ff ff ff 01 01 00 00 ff fe fe ff ff 01 00 ff fe ff fe ff fe fe ff 01 01 01 fd ff 00 00 00 01 01 00 00 01 00 00 ff 02 03 01 01 00 ff 00 ff ff 00 00 ff fe fe 00 00 00 01 ff 00 02 00 00 00 01 00 02 02 00 fe ff 01 01 00 01 ff fe ff fe ff 00 01 00 ff 00 01 00 ff ff ff 00 01 00 01 00 00 ff 00 01 00 fc 01 00 01 01 00 00 ff ff ff 00 ff 00 ff 00 fe 00 02 00 fe 00 ff ff 03 01 ff fc 01 ff 01 00 ff 00 00 01 01 01 00 ff 00 00 01 00 00 fe 01 ff 01 ff 00 01 00 00 00 00 00 01 01 01 01 00 fe 00 01 00 ff 00 ff 00 fe ff ff ff 00 00 ff 01 00 01 01 00 00 00 01 00 00 00 00 ff ff 00 00 00 01 01 01 01 00 00 00 02 00 00 fe 00 00 ff fe fe ff ff ff 00 ff ff 01 01 00 00 ff 00 01 01 00 00 00 00 01 01 00 ff 00 00 00 00 ff ff 00 00 00 00 fe ff fe ff 00 00 ff fd fe ff 01 01 fe ff ff 00 00 00 01 00 00 00 01 02 ff fe 00 00 00 01 02 ff fe fe ff 00 00 ff fe 01 00 01 00 ff ff 00 00 00 00 00 00 fe ff ff 00 ff ff 00 ff 00 ff ff 01 00 01 00 ff ff 00 01 01 00 00 01 00 ff 00 00 00 ff 01 00 00 00 00 00 00 00 01 01 00 01 01 01 01 01 01 00 ff 00 fe ff 00 00 ff ff ff 00 01 00 ff 00 00 01 02 00 00 00 00 00 00 00 00 ff 01 ff 00 00 00 00 00 ff 00 00 00 00 ff 01 00 00 00 00 00 00 01 00 00 00 fe 00 ff ff 00 00 ff 00 ff fe ff fe 00 01 00 00 00 ff ff 01 00 00 00 01 00 ff ff 00 ff 00 01 00 00 ff 00 00 00 00 ff 00 00 00 00 00 01 01 00 00 00 00 00 00 fe 00 00 00 00 01 01 00 00 00 00 00 01 01 00 00 fc ff 01 ff ff ff 00 fd 00 01 fe fe ff 00 00 01 00 00 ff 00 01 00 00 fe 02 01 01 01 00 ff fb 00 ff 00 ff 00 fe fe fe ff 00 ff 00 00 01 ff 00 ff ff ff 00 ff ff 00 00 ff ff 00 fe 00 01 01 ff 00 00 00 01 00 00 00 00 00 01 01 00 00 01 00 fe 01 00 00 00 00 00 00 00 00 ff fe 00 00 00 00 00 01 fe 00 00 00 00 00 00 00 fe ff 00 ff 00 00 ff 00 00 00 00 00 00 01 00 01 00 00 00 ff 00 00 00 fe ff 00 ff 00 ff fe fe fa fe 00 00 ff 00 ff 01 ff 00 00 00 00 00 00 fd 00 00 00 00 01 00 fe ff ff 00 ff 00 ff 01 00 ff 00 00 ff 00 02 01 02 01