00
01
00
ff
00
00
01
fe
00
00
00
00
00
00
00
00
00
01
01
fe
00
00
00
00
ff
00
01
00
00
ff
ff
00
00
00
00
00
ff
00
01
ff
fd
00
00
ff
01
01
01
ff
00
00
00
01
00
01
fe
00
01
01
fe
00
00
ff
00
01
01
00
00
00
00
00
01
fd
fe
00
00
00
00
00
00
00
ff
02
01
01
01
ff
00
01
ff
01
ff
00
00
00
ff
ff
ff
00
00
00
00
ff
00
00
00
00
01
ff
00
00
fe
00
00
00
ff
00
00
02
ff
00
01
02
00
00
00
00
00
fe
01
01
fe
02
00
02
01
01
00
00
ff
00
ff
01
02
00
01
00
00
01
fe
00
00
ff
01
ff
01
01
ff
00
02
00
fd
fb
ff
01
00
ff
01
00
00
00
00
00
ff
01
00
ff
00
00
ff
00
00
ff
00
fd
00
02
01
00
01
00
01
00
ff
00
01
ff
01
01
fe
ff
01
00
ff
00
ff
00
fe
ff
00
00
ff
02
ff
00
00
fe
00
02
01
00
00
00
00
00
00
00
00
01
01
ff
00
ff
ff
01
00
ff
00
00
00
00
ff
fc
01
00
ff
00
00
ff
00
ff
00
00
01
01
ff
fe
01
02
00
00
00
00
00
00
ff
00
00
fd
00
00
00
01
00
ff
00
fe
01
fe
01
01
00
ff
ff
ff
00
ff
00
ff
00
02
00
00
00
00
00
ff
01
ff
01
00
00
01
01
00
ff
00
fe
ff
03
ff
ff
01
00
01
02
ff
00
fe
ff
00
00
01
ff
01
00
00
00
00
00
01
fe
00
00
00
fe
00
00
ff
ff
00
00
ff
00
00
01
01
00
ff
00
00
ff
fe
00
ff
ff
00
01
01
01
00
00
fe
00
00
00
00
00
01
fe
01
00
01
00
fd
fe
00
ff
00
ff
00
00
00
ff
02
00
ff
00
fe
00
01
01
ff
ff
ff
01
00
ff
00
fe
01
01
01
00
00
00
00
ff
00
01
01
00
00
fe
ff
00
01
00
01
ff
00
ff
02
00
00
01
fe
00
00
00
ff
02
00
01
00
00
00
fe
ff
00
00
ff
01
00
01
ff
00
00
00
00
01
00
00
ff
01
ff
00
ff
ff
fe
00
01
00
01
00
01
02
00
00
fe
00
00
ff
01
00
ff
00
ff
ff
fd
00
00
00
00
00
00
02
00
00
00
00
03
ff
ff
00
ff
02
01
fe
00
00
02
ff
01
ff
ff
00
01
ff
00
fd
fe
01
00
fe
00
00
01
00
01
fe
00
fd
01
fd
00
01
ff
01
00
ff
02
00
ff
00
03
00
02
00
ff
00
00
01
ff
fe
00
00
ff
00
ff
fe
03
00
00
01
00
02
ff
ff
ff
00
ff
00
ff
00
00
01
00
01
fe
00
00
02
ff
00
00
fc
01
ff
ff
ff
01
ff
ff
ff
01
ff
00
ff
fe
01
01
01
00
00
00
ff
00
00
01
00
02
00
00
ff
00
00
fe
01
00
01
ff
fe
00
ff
00
02
00
00
00
01
02
01
00
00
ff
ff
00
00
00
00
00
00
01
01
ff
00
01
00
00
00
00
00
ff
00
02
01
00
01
ff
02
00
00
00
00
fe
01
00
00
00
ff
00
00
00
ff
00
ff
00
02
00
01
00
ff
00
00
00
00
00
00
00
00
00
00
ff
ff
ff
00
00
01
00
00
00
00
00
01
ff
ff
00
00
02
01
fc
00
00
00
00
00
ff
ff
00
00
01
00
00
00
ff
00
00
00
ff
00
00
00
01
ff
00
00
01
00
00
00
00
fe
01
01
ff
fe
00
02
fe
00
fe
00
ff
00
01
00
01
01
01
01
ff
03
01
00
00
ff
ff
00
ff
00
fe
00
00
01
00
00
ff
00
ff
00
01
00
fe
ff
ff
00
00
ff
00
00
00
01
00
00