01
01
01
00
ff
ff
00
fe
fc
00
01
00
00
01
00
00
01
00
00
01
00
01
00
00
00
ff
00
01
01
00
00
fe
01
ff
00
00
00
fc
00
ff
ff
ff
00
00
ff
fe
02
00
00
00
ff
00
02
fe
00
ff
00
00
01
01
ff
fe
00
00
00
00
01
00
00
00
01
fd
ff
f9
00
01
fe
00
ff
ff
ff
ff
01
01
00
01
00
ff
00
00
00
00
00
00
01
00
fe
00
01
ff
00
01
01
00
01
01
01
03
00
fe
01
ff
00
01
00
00
ff
00
01
00
00
00
01
fe
02
ff
01
01
00
ff
ff
ff
01
00
00
ff
01
01
00
fe
00
00
00
fd
00
00
ff
01
01
00
ff
00
00
01
ff
00
00
00
00
01
00
00
01
ff
02
01
00
ff
ff
00
00
ff
ff
fe
ff
00
ff
00
00
01
ff
00
00
01
ff
00
00
ff
00
00
00
ff
01
00
00
ff
ff
fd
00
00
ff
00
00
01
00
00
ff
00
00
ff
ff
01
01
fb
ff
fe
00
00
ff
01
01
ff
01
00
01
ff
00
00
01
00
fc
00
ff
00
00
ff
00
00
02
00
00
02
ff
00
00
00
ff
00
ff
00
00
01
00
01
00
ff
fe
00
01
00
00
00
00
00
00
02
01
01
ff
01
01
ff
00
00
ff
ff
00
00
fe
00
01
ff
01
00
00
ff
fe
00
fe
00
00
01
fe
01
ff
01
00
02
ff
00
ff
00
00
00
00
ff
00
ff
02
01
01
00
01
00
ff
02
00
ff
01
ff
fe
ff
00
ff
00
00
00
00
00
ff
00
fd
00
ff
01
00
00
00
00
02
00
ff
00
ff
ff
00
00
02
ff
01
01
00
00
00
01
01
00
00
01
01
01
ff
ff
00
01
00
00
01
00
01
00
00
01
ff
fd
00
00
00
00
00
ff
01
01
00
00
00
00
ff
ff
01
ff
00
ff
00
ff
00
00
00
02
ff
00
ff
00
00
00
00
ff
00
00
01
01
ff
02
fe
01
ff
00
00
00
00
00
00
00
00
01
00
ff
01
ff
00
fe
02
ff
fd
01
00
00
00
00
00
00
00
02
00
ff
02
00
ff
00
00
00
00
01
01
00
01
fe
ff
ff
01
00
00
ff
00
00
00
fe
00
fe
00
00
01
00
01
ff
fe
00
00
fc
00
00
00
00
ff
00
00
01
00
00
00
00
01
fe
ff
00
03
ff
00
00
00
01
00
ff
00
00
00
fd
01
ff
ff
02
00
ff
00
00
01
00
00
fe
ff
00
00
ff
00
fe
00
01
ff
01
01
ff
02
00
01
ff
01
ff
00
00
02
ff
03
ff
fe
00
ff
ff
02
00
ff
00
00
00
00
00
00
01
01
00
ff
00
00
00
00
ff
01
00
00
01
00
01
00
00
ff
00
00
fe
00
00
01
00
00
00
00
00
01
ff
00
00
fa
01
03
00
fc
ff
01
00
00
fd
00
00
01
ff
fc
01
00
00
00
00
00
00
00
ff
ff
00
00
ff
00
fe
ff
00
00
01
00
00
ff
00
00
00
00
00
00
00
00
00
00
00
00
00
00
00
00
01
00
00
00
00
01
00
fe
00
ff
01
01
02
02
01
00
00
00
ff
01
ff
01
00
00
ff
00
fe
00
fd
00
ff
01
00
01
ff
ff
01
00
01
00
01
00
00
01
00
00
00
fe
ff
00
00
00
02
00
00
00
00
ff
ff
00
ff
00
fd
ff
00
fe
fe
00
01
00
ff
ff
ff
00
00
00
00
00
01
ff
01
ff
fe
01
fe
00
ff
00
00
fe
01
00
ff
00
01
00
01
00
fe
ff
ff
00
01
ff
00
01
01
01
00
00
01
ff
00
fd
00
01
00
00
00
ff
00
00
01
00
00
ff
00
00
00
00
00
00
01
01
00
ff
00
00
00
00
02
ff