00
ff
00
01
01
01
01
00
00
00
00
00
01
01
02
ff
fe
ff
00
00
00
00
01
fe
ff
00
00
00
02
02
01
00
00
01
00
04
02
00
00
00
00
00
ff
00
ff
fc
ff
00
00
00
00
ff
01
00
ff
00
00
00
02
00
ff
fc
ff
00
01
01
00
ff
ff
fe
01
01
00
01
01
01
00
fd
00
00
01
00
fe
fe
00
00
01
01
00
ff
ff
ff
01
01
00
00
00
00
00
00
ff
00
00
00
00
00
00
00
ff
ff
00
00
00
00
ff
ff
00
00
00
ff
ff
ff
00
00
00
00
ff
ff
ff
00
00
00
00
00
00
ff
00
00
00
00
00
ff
ff
00
00
00
00
01
00
00
00
00
ff
ff
01
00
00
00
01
01
01
00
ff
fe
00
00
00
00
00
ff
00
01
00
00
00
01
01
00
01
01
00
01
01
00
ff
00
00
00
00
01
00
ff
ff
00
00
00
ff
ff
ff
fe
00
fe
fe
01
00
00
00
00
fe
fe
02
01
02
01
01
01
ff
00
00
00
02
02
ff
fe
ff
ff
ff
01
01
ff
ff
00
00
00
00
01
ff
00
00
01
00
00
01
01
00
02
00
ff
00
ff
fe
00
00
00
00
01
00
00
00
00
00
00
00
ff
ff
fd
ff
ff
00
00
00
00
fe
00
ff
00
02
01
00
fd
00
00
ff
01
00
fe
fe
01
00
00
00
ff
ff
01
ff
00
00
01
02
ff
ff
00
00
01
01
01
00
00
01
00
00
00
00
fe
fe
00
01
00
01
01
ff
fd
00
01
00
01
01
ff
ff
01
01
00
00
fe
fe
ff
01
02
01
fe
ff
00
00
00
00
ff
00
01
01
02
ff
00
ff
ff
ff
ff
fc
ff
ff
ff
00
01
00
00
fe
fe
ff
00
00
00
ff
00
ff
ff
ff
00
00
fd
00
00
ff
ff
00
01
00
01
00
00
ff
01
01
00
ff
00
00
00
fe
fe
ff
ff
00
fe
fd
ff
ff
00
ff
00
00
01
02
01
00
fe
fe
02
ff
ff
00
ff
ff
fe
fd
fe
ff
00
00
00
fe
ff
ff
01
01
00
fe
fe
fd
00
00
00
00
01
00
01
00
01
ff
ff
01
00
01
00
00
00
01
01
01
ff
ff
01
ff
ff
ff
fd
fe
01
00
ff
01
02
00
ff
00
00
00
00
01
01
00
00
00
ff
00
01
02
00
ff
01
00
01
01
00
fe
ff
fd
fd
00
ff
ff
ff
fe
ff
fd
00
fe
ff
ff
ff
fe
fe
00
00
fe
ff
ff
ff
fe
00
00
00
00
ff
00
01
00
00
00
fe
fe
00
00
00
00
00
ff
ff
00
00
00
00
00
02
00
ff
ff
00
00
00
00
01
01
00
02
00
00
01
01
02
01
02
00
00
01
fe
ff
00
01
00
fe
ff
fd
00
00
01
00
ff
ff
ff
01
00
01
00
ff
fc
00
ff
01
01
ff
ff
ff
00
01
ff
ff
00
00
01
01
00
fe
ff
01
01
01
00
00
00
00
ff
00
01
01
01
00
00
ff
00
02
01
00
ff
ff
00
00
00
00
ff
ff
00
00
01
01
00
00
00
00
00
00
01
ff
00
ff
ff
01
ff
fe
fe
ff
00
01
00
00
ff
ff
01
00
00
00
fe
00
01
01
00
01
ff
fc
fd
00
01
00
01
00
00
00
00
01
01
00
00
01
00
01
01
01
ff
00
00
00
00
00
ff
ff
00
00
ff
ff
ff
ff
fc
ff
00
01
ff
fd
fd
fe
00
00
01
02
fe
01
fe
00
ff
00
00
ff
fe
ff
ff
00
01
01
01
01
01
02
03
04
03
03
00
ff
01
01
01
01
01
01
ff
00
02
00
00
ff
00
01
ff
ff
ff
00
00
00
00
ff
ff
00
01
01
01
00
00
fe
fe
00
00
01
00
00
00
ff
00
01
01
00
02
00
01
00
01
01
ff
