01
01
fc
01
fd
fe
fe
ff
01
00
00
00
00
00
ff
00
00
00
ff
01
ff
00
01
00
00
fe
00
01
01
ff
00
ff
00
00
00
00
00
00
fb
ff
00
01
ff
ff
ff
01
00
00
fe
01
01
00
fd
00
ff
00
00
00
00
00
ff
ff
00
00
00
fe
ff
01
00
00
00
00
01
00
ff
00
00
00
00
ff
00
01
03
00
01
fe
01
ff
00
00
00
00
00
00
01
ff
00
01
ff
fe
fe
00
fe
01
fe
ff
01
01
ff
00
ff
02
01
01
ff
00
00
01
00
01
00
00
00
ff
fc
00
ff
01
00
01
00
00
01
00
00
00
ff
00
00
00
01
00
00
ff
fe
00
ff
ff
03
ff
01
00
00
00
fe
00
00
00
ff
fe
01
00
00
00
01
00
00
00
ff
00
00
ff
ff
ff
ff
ff
fd
00
ff
01
00
fe
fe
ff
01
00
ff
00
ff
ff
01
00
ff
01
00
fe
00
00
ff
ff
00
00
00
ff
01
00
00
01
01
01
00
00
00
01
ff
01
fe
00
00
00
01
00
ff
ff
00
01
ff
01
01
ff
ff
00
00
01
00
01
fe
00
02
ff
00
00
00
01
00
00
00
ff
00
00
00
00
01
00
ff
00
ff
ff
ff
00
00
ff
02
fe
00
00
01
01
01
00
fc
ff
00
00
fe
ff
ff
00
fd
ff
01
00
01
ff
00
ff
fe
00
00
00
01
01
ff
01
00
00
ff
00
00
fe
00
fc
01
00
ff
fe
00
01
01
ff
ff
00
00
fe
00
ff
ff
00
00
00
00
01
ff
ff
00
00
00
ff
01
01
01
ff
00
01
00
02
01
00
00
00
02
ff
01
02
ff
01
ff
01
00
01
00
ff
fe
03
00
ff
00
fe
ff
00
00
fe
ff
01
00
00
01
ff
00
02
00
01
fe
00
00
ff
ff
00
00
00
00
ff
01
00
ff
01
fe
00
00
fe
00
00
00
00
00
00
00
fc
02
01
00
00
00
00
00
00
ff
ff
fe
00
02
00
02
01
ff
01
00
01
00
ff
ff
01
fe
00
00
02
00
00
ff
00
ff
01
00
fe
02
01
ff
01
ff
01
00
01
fe
ff
fd
00
ff
fe
00
01
00
01
01
00
ff
00
00
00
00
00
00
01
ff
00
ff
00
02
00
01
ff
00
fe
02
00
ff
01
fe
01
01
00
00
00
00
00
00
01
fe
00
01
00
ff
01
00
00
ff
00
01
00
00
01
ff
00
ff
ff
02
ff
ff
00
ff
01
ff
00
ff
00
00
01
00
00
ff
01
00
00
ff
00
00
01
fd
00
fd
00
fc
00
ff
00
00
00
00
01
ff
00
02
ff
fe
00
00
00
00
00
00
00
00
01
ff
ff
00
00
fe
00
ff
ff
00
ff
00
ff
fe
00
ff
00
00
00
ff
ff
00
ff
01
00
00
00
00
01
00
00
00
ff
01
00
00
02
00
01
00
01
ff
00
01
ff
01
ff
fe
ff
ff
ff
00
00
ff
00
ff
00
01
01
01
00
fd
00
ff
01
00
fe
00
00
00
00
ff
00
01
ff
00
00
00
00
00
fe
ff
fe
00
fe
00
00
00
01
ff
00
00
00
ff
00
00
01
00
00
00
00
00
01
00
ff
00
01
01
ff
fd
00
ff
00
ff
00
01
00
fe
ff
ff
00
00
01
ff
00
00
00
ff
00
00
00
ff
01
ff
00
00
ff
00
00
00
ff
00
01
ff
00
01
ff
01
ff
00
ff
00
00
00
01
01
ff
fe
00
ff
00
00
fd
00
00
00
00
00
00
ff
00
01
ff
01
00
00
ff
01
ff
ff
00
00
00
01
ff
00
fd
00
00
ff
fd
00
00
ff
fd
00
fe
ff
fd
00
ff
ff
01
00
fe
00
01
00
02
ff
01
01
02
00
00
02
ff
ff
00
00
ff
fe
01
ff
01
00
01
00
ff
00
00
00
00