fe
ff
01
00
00
00
fc
ff
00
ff
01
02
01
00
fe
fd
fe
ff
00
00
01
fb
ff
00
fe
00
00
00
fe
02
01
fe
fe
00
00
01
02
00
01
00
00
01
00
02
01
02
03
01
01
00
01
ff
ff
00
00
01
00
00
00
ff
00
ff
00
00
ff
ff
00
00
00
00
01
ff
00
01
ff
ff
00
00
00
01
02
ff
fd
00
ff
01
02
ff
ff
ff
00
01
00
00
00
00
00
00
00
00
00
ff
00
00
00
00
00
00
00
ff
ff
00
00
00
00
00
ff
00
00
00
00
00
00
00
00
00
ff
ff
00
00
00
00
00
ff
00
01
00
00
00
00
00
00
00
00
01
00
00
00
fe
01
00
00
ff
ff
ff
ff
fe
00
00
00
ff
ff
00
ff
01
01
01
01
ff
00
00
00
01
01
ff
00
ff
ff
ff
00
00
fe
ff
00
fe
ff
00
00
01
00
00
00
01
01
01
01
00
00
00
fe
fe
01
00
fe
fe
02
01
01
ff
00
fe
01
00
00
00
ff
ff
00
ff
ff
01
00
ff
00
ff
ff
00
00
00
ff
fd
ff
01
00
00
00
ff
00
01
00
00
00
ff
00
00
00
ff
00
ff
fe
ff
00
ff
ff
fe
fd
ff
fe
00
00
00
01
00
00
01
01
01
01
01
01
00
00
00
00
00
00
ff
01
fe
ff
ff
ff
00
00
ff
00
01
ff
00
00
00
00
01
02
00
00
fe
fe
ff
00
00
ff
ff
fd
01
01
00
00
01
ff
01
01
00
00
00
ff
01
02
00
ff
fe
00
fd
01
01
00
fe
fe
fe
ff
01
00
00
00
00
01
02
00
00
00
01
01
00
00
fe
01
00
fe
00
fd
fe
00
ff
ff
ff
00
00
00
00
01
00
01
fd
00
ff
01
00
ff
00
ff
fd
ff
00
fe
00
01
00
00
01
00
00
00
00
00
01
01
01
01
01
00
fe
00
ff
01
ff
ff
fd
00
00
01
00
00
fd
fe
00
00
00
01
00
ff
ff
ff
00
00
01
fe
fe
01
01
01
ff
ff
fe
fe
01
01
ff
01
01
ff
02
01
ff
00
01
01
01
01
00
00
01
00
fd
00
00
ff
fe
ff
ff
00
01
02
00
00
00
00
ff
03
00
00
00
ff
ff
00
01
ff
fe
01
00
fd
01
01
ff
fe
ff
ff
00
00
00
ff
ff
00
01
03
00
ff
01
00
02
00
00
ff
00
ff
fd
ff
00
ff
00
fe
fd
fd
fe
00
00
00
01
ff
ff
ff
ff
00
00
01
01
00
01
00
01
01
ff
00
01
00
00
00
ff
ff
00
00
00
00
00
00
00
01
00
00
00
00
00
fe
02
fe
00
fc
00
fe
fc
fe
00
ff
ff
00
ff
00
00
00
00
00
00
01
01
01
00
01
00
00
00
ff
01
00
01
ff
00
fe
00
01
00
00
00
00
02
01
01
00
ff
00
00
00
00
00
00
01
00
00
ff
00
00
00
00
ff
00
fe
00
00
00
ff
ff
00
00
01
02
00
ff
00
00
00
01
01
ff
fe
ff
00
00
00
ff
ff
00
00
01
00
ff
00
00
00
00
00
00
fd
ff
ff
00
fd
00
fe
02
01
00
ff
ff
ff
00
01
00
00
00
00
ff
00
00
ff
ff
01
00
ff
00
fe
ff
ff
00
ff
fe
ff
00
00
00
ff
ff
ff
00
01
01
00
01
00
ff
ff
01
00
ff
ff
ff
00
01
01
00
00
fe
ff
01
01
01
00
00
fd
00
00
fe
fd
00
01
00
ff
ff
ff
fe
ff
01
01
00
00
01
01
00
ff
fe
00
01
02
02
01
00
fe
00
00
ff
00
ff
00
00
ff
ff
ff
00
00
01
00
ff
01
01
01
00
01
00
ff
02
01
01
00
01
00
00
00
02
ff
ff
00
00
ff
ff
01
00
fe
ff
ff
00
00
02
01
00
00
00
00
