fe
00
fe
ff
ff
00
01
02
01
00
00
ff
00
00
02
00
01
ff
00
ff
ff
00
ff
01
00
00
00
00
01
ff
01
00
ff
ff
ff
01
fd
fe
ff
00
00
00
00
00
01
02
00
ff
00
00
00
00
00
ff
ff
ff
01
00
00
fd
00
00
00
01
fe
ff
ff
00
00
02
fe
ff
00
00
ff
01
01
01
01
01
00
01
01
ff
00
01
ff
ff
ff
01
00
ff
ff
ff
ff
00
01
01
00
00
ff
00
ff
00
00
00
ff
00
00
00
01
00
00
00
00
01
00
00
00
00
00
00
00
00
00
00
01
00
00
00
00
00
00
ff
00
00
00
00
00
00
ff
00
ff
00
00
00
00
00
00
fd
00
ff
01
02
ff
00
02
01
00
00
ff
00
01
02
00
00
00
fe
01
00
00
ff
01
ff
fd
ff
00
00
ff
00
ff
ff
ff
fe
00
ff
00
00
ff
00
00
01
00
00
ff
00
00
00
fe
fe
01
00
01
fe
01
fd
fd
fe
01
02
01
fe
00
ff
00
01
01
00
00
01
ff
00
02
ff
00
01
00
00
00
01
00
00
01
00
00
00
00
ff
00
00
00
ff
00
00
00
fe
fe
ff
00
ff
01
00
00
00
02
02
01
00
fe
01
01
02
00
01
00
01
00
00
ff
00
00
01
02
01
ff
ff
00
ff
00
ff
00
ff
ff
ff
00
02
00
00
ff
00
ff
01
01
01
ff
fd
fe
00
fe
ff
ff
01
02
02
ff
fd
ff
01
01
00
00
fe
ff
ff
00
00
00
01
02
ff
01
01
01
00
00
01
00
00
01
00
00
ff
ff
01
02
ff
01
ff
ff
01
00
00
01
00
ff
fe
00
00
00
02
ff
00
00
ff
01
00
00
00
ff
01
00
01
01
fe
01
00
00
ff
01
01
00
01
00
00
00
01
01
fe
00
ff
00
00
ff
00
00
01
00
00
01
00
00
00
fe
00
00
ff
02
ff
ff
00
ff
01
03
03
01
00
00
ff
02
01
02
01
00
ff
01
00
00
00
00
00
01
ff
ff
ff
00
00
00
01
01
01
00
00
00
00
00
fe
00
01
01
00
00
fe
fe
ff
01
00
01
01
01
01
ff
ff
ff
01
01
01
ff
00
fe
ff
ff
fe
00
01
01
01
01
00
ff
00
00
01
00
01
ff
00
fe
fe
fe
fe
01
01
fe
02
ff
00
01
00
ff
01
00
fe
ff
00
00
01
00
00
00
02
03
03
01
ff
01
00
01
00
01
01
ff
01
00
ff
00
01
02
00
00
ff
ff
01
00
ff
00
01
ff
00
01
01
ff
00
01
00
01
01
01
01
00
00
ff
ff
ff
01
00
00
00
fe
02
01
01
01
00
00
01
01
01
01
00
00
01
01
02
ff
00
ff
fe
00
ff
00
ff
00
00
00
00
ff
01
01
00
ff
00
00
01
02
01
01
00
00
ff
ff
00
ff
fe
ff
ff
ff
00
fd
fd
fd
ff
00
00
00
fd
fd
fc
fe
00
00
00
00
00
ff
00
00
00
00
00
00
01
00
ff
00
00
ff
ff
ff
01
00
00
ff
ff
00
00
00
00
00
00
fe
fe
00
00
ff
00
ff
00
ff
00
02
01
fe
00
00
00
00
00
00
ff
00
01
00
00
00
ff
01
01
00
ff
00
00
ff
00
01
01
00
00
00
ff
00
ff
00
ff
ff
01
00
fe
ff
ff
00
00
01
01
01
00
00
00
02
01
01
00
00
00
fd
00
01
fe
00
00
00
fd
00
ff
00
00
01
00
ff
00
00
ff
01
01
00
00
00
01
00
01
00
ff
fe
fe
00
ff
00
00
fe
00
ff
00
00
00
01
ff
ff
ff
00
02
00
00
00
00
00
01
00
ff
01
01
00
00
01
fe
00
ff
01
00
01
02
ff
00
ff
00
00
00
01
00
ff
00
ff
ff
ff
00
00
