03
02
00
00
00
01
01
00
ff
ff
ff
ff
ff
ff
fe
ff
00
01
00
01
00
fd
00
ff
02
01
01
01
fe
00
ff
00
00
00
00
ff
ff
00
00
ff
ff
00
00
00
ff
fc
fe
00
ff
00
00
01
ff
00
01
01
00
ff
fe
ff
ff
00
ff
ff
fe
ff
00
00
02
ff
00
fb
fc
00
01
00
fc
00
fe
fd
ff
00
00
00
01
ff
00
01
01
00
ff
ff
00
00
00
00
00
ff
ff
00
ff
00
00
00
00
00
00
00
00
00
00
00
00
00
00
ff
00
00
00
00
00
00
00
ff
00
00
ff
00
00
00
00
00
00
ff
00
00
00
00
00
00
00
00
00
00
00
00
00
00
00
02
01
01
01
00
01
00
01
00
fe
00
01
00
00
01
fe
fd
00
00
00
00
01
00
00
01
00
ff
00
01
00
00
00
00
ff
ff
01
00
00
00
fe
00
ff
00
fe
ff
00
fd
00
00
02
03
ff
00
01
00
ff
ff
01
01
00
ff
ff
fe
ff
00
01
ff
fe
00
ff
ff
00
00
ff
00
00
ff
ff
00
01
00
00
01
ff
00
00
00
00
ff
fd
ff
ff
00
01
ff
ff
02
03
01
01
02
03
00
02
01
00
ff
ff
00
ff
01
00
ff
fe
fe
01
00
00
01
ff
fe
00
01
fd
fe
00
01
00
01
ff
00
ff
ff
01
01
00
00
00
ff
ff
00
01
ff
00
fd
01
02
01
ff
01
02
01
01
01
fe
ff
00
00
00
ff
ff
fd
00
00
01
00
ff
ff
fe
01
01
01
01
ff
00
ff
00
00
ff
ff
ff
ff
00
01
01
ff
00
00
ff
ff
ff
00
ff
fe
00
02
01
00
01
00
00
02
01
00
00
ff
00
fd
ff
01
01
00
00
00
01
ff
01
01
01
ff
ff
02
01
01
01
00
00
ff
fe
ff
00
00
fe
01
fe
ff
ff
ff
ff
fc
fd
fe
00
01
01
01
02
02
00
01
fe
01
02
03
01
ff
00
00
02
03
01
00
ff
ff
01
00
01
ff
fd
ff
00
ff
fe
00
ff
ff
00
00
ff
00
fe
ff
00
00
00
00
00
00
ff
fe
00
00
02
01
01
00
00
01
00
ff
00
ff
00
00
00
01
fd
00
00
01
01
01
00
fe
ff
00
01
00
00
00
00
00
00
00
00
00
01
fe
ff
00
01
00
00
00
00
ff
00
ff
ff
ff
fe
01
02
01
02
01
02
00
02
02
00
01
ff
ff
00
00
01
00
00
fd
fd
00
00
01
01
00
fe
ff
00
00
01
01
fe
00
00
ff
ff
00
01
fe
fd
fe
00
ff
ff
00
ff
fe
fe
00
00
01
03
02
01
00
00
00
03
01
01
00
00
00
00
01
01
01
fe
fe
ff
00
02
00
01
fd
ff
ff
00
02
01
00
01
01
00
00
ff
01
ff
01
00
ff
00
00
00
fd
01
01
fe
00
ff
ff
ff
01
00
00
00
ff
fe
ff
02
01
00
ff
fd
fc
ff
02
02
00
00
fe
fe
ff
01
00
fe
00
00
ff
ff
00
00
00
00
ff
00
01
00
00
00
ff
ff
ff
00
00
00
ff
00
00
03
02
00
01
01
00
01
01
01
01
00
ff
00
00
01
00
ff
ff
00
00
02
00
00
ff
ff
00
fe
00
00
00
00
00
01
ff
ff
01
01
00
ff
ff
ff
ff
ff
00
ff
ff
ff
02
02
01
00
00
00
ff
00
00
00
ff
00
00
00
ff
00
01
01
02
01
03
00
00
01
02
00
ff
fe
ff
ff
ff
00
ff
ff
fe
fe
fe
fc
fe
00
fe
00
00
fe
fd
ff
ff
ff
00
00
00
00
00
00
02
01
00
00
00
ff
ff
ff
ff
00
00
00
01
fe
00
00
ff
00
01
ff
ff
ff
01
ff
00
01
02
00
ff
00
ff
00
00
01
00
00
00
ff
00
ff
ff
00
ff
00
