fe
00
00
01
fe
ff
fe
01
01
00
00
00
00
00
ff
01
01
00
fe
01
ff
ff
ff
00
00
01
00
ff
ff
01
00
fe
00
00
00
00
fe
fe
ff
fd
00
01
ff
ff
ff
ff
01
00
ff
ff
ff
00
01
fe
ff
00
00
ff
fe
fe
ff
00
01
00
00
00
00
01
00
00
01
00
00
01
00
02
00
00
00
ff
fc
00
00
01
00
ff
01
ff
00
00
00
00
00
ff
00
00
fe
00
02
ff
ff
00
00
00
ff
fe
00
fe
01
00
01
00
00
01
ff
00
ff
ff
01
ff
04
00
00
ff
00
01
00
01
00
00
ff
00
02
00
00
00
02
00
00
ff
01
00
00
ff
00
00
00
00
01
01
01
ff
ff
00
00
00
00
00
ff
fe
02
00
ff
00
ff
02
ff
00
00
00
00
01
00
ff
ff
00
00
00
00
01
01
ff
00
00
03
00
00
ff
ff
01
01
00
ff
01
01
fe
ff
02
00
01
01
ff
ff
00
00
fe
ff
01
01
00
00
ff
00
ff
ff
01
ff
00
00
01
ff
ff
00
01
00
ff
01
01
01
fc
00
00
ff
01
00
01
ff
00
04
fc
00
01
01
00
00
00
ff
00
ff
00
00
00
01
00
00
00
01
ff
01
02
01
fd
00
fe
00
01
00
01
ff
ff
ff
fe
00
01
00
00
02
00
fe
01
01
01
00
00
fd
ff
ff
00
ff
00
01
00
ff
ff
00
00
00
00
00
ff
01
ff
00
ff
ff
fd
ff
01
01
00
00
fe
01
00
ff
00
00
00
00
00
ff
01
ff
00
00
00
00
00
ff
00
ff
ff
01
00
fe
00
00
ff
00
02
01
ff
01
01
fe
01
ff
00
00
01
01
00
00
01
01
ff
00
fe
ff
fe
01
01
fe
03
01
01
00
ff
01
01
00
00
ff
00
00
00
ff
00
fe
00
ff
00
01
00
00
01
fe
00
00
01
ff
ff
00
00
00
00
ff
ff
02
00
00
01
00
00
00
00
ff
ff
00
00
00
00
01
ff
00
00
00
fd
00
00
00
00
00
00
00
00
00
00
00
00
fd
01
ff
fc
01
ff
01
ff
01
00
00
01
01
01
fe
00
ff
fe
00
01
01
fe
02
01
00
00
01
00
fe
01
00
00
fe
00
ff
00
01
fe
00
00
00
ff
ff
00
00
00
ff
00
00
00
00
00
ff
ff
00
00
01
01
ff
ff
00
00
00
00
ff
01
fe
fe
01
fd
fe
01
00
01
00
00
01
01
fe
01
01
01
ff
00
01
00
ff
00
00
02
00
01
00
ff
01
00
01
00
00
00
fd
01
00
00
01
01
ff
ff
ff
00
01
fe
fc
ff
00
fe
ff
01
00
01
01
ff
00
00
01
fe
01
ff
00
00
00
00
00
fe
00
ff
ff
00
00
ff
02
01
00
ff
01
00
ff
ff
00
01
00
01
00
fd
00
00
ff
00
01
00
01
02
ff
00
00
ff
00
ff
02
ff
ff
01
00
00
00
03
00
00
02
01
ff
00
ff
00
ff
01
ff
ff
ff
01
01
00
fe
ff
ff
fe
ff
ff
fe
ff
fd
fc
00
fe
01
ff
00
00
00
00
00
00
00
ff
00
01
01
01
02
00
01
ff
00
ff
01
fe
00
01
00
ff
ff
00
00
01
ff
00
00
ff
fe
00
ff
ff
00
00
01
00
fe
00
fe
01
ff
ff
00
00
ff
01
ff
ff
00
00
01
01
00
00
ff
ff
01
ff
01
ff
00
00
01
01
01
ff
02
fb
fe
01
ff
ff
ff
ff
01
ff
00
00
00
00
00
ff
00
fe
00
01
01
00
ff
00
00
01
00
ff
00
ff
01
00
00
01
00
01
ff
00
00
00
ff
ff
01
00
02
ff
01
00
ff
fd
00
00
00
fe
ff
01
00
00
00
ff
01
fe
00
ff
ff
ff
ff
01
ff
01
01
00
01
ff
01
00
01
00