ff
01
ff
ff
01
00
ff
fd
00
00
ff
00
00
00
00
00
00
ff
00
ff
00
00
01
00
00
00
01
ff
00
00
00
00
ff
fe
00
01
00
01
fd
01
00
00
fe
00
00
00
01
01
ff
ff
02
00
fd
00
00
01
01
00
01
00
00
fe
ff
fe
ff
01
00
ff
00
00
01
01
fb
ff
00
00
00
ff
01
00
00
ff
02
00
00
fe
01
00
00
00
00
00
00
01
ff
00
00
fe
ff
ff
00
00
01
01
ff
ff
02
00
fe
00
00
02
01
01
fd
ff
ff
01
00
01
fe
01
00
ff
fe
01
01
00
fe
01
ff
00
00
fd
ff
ff
ff
01
fe
01
00
01
ff
00
fe
00
00
ff
02
00
ff
00
01
ff
ff
ff
01
00
01
01
00
01
fe
01
00
00
00
00
00
00
00
01
00
ff
fe
ff
fe
01
ff
01
00
00
ff
fe
01
00
00
00
01
00
01
00
fe
01
01
00
01
ff
00
fe
00
00
ff
00
00
ff
01
00
ff
01
00
00
fe
00
00
03
00
00
02
00
ff
02
ff
00
00
01
00
01
00
fc
ff
00
00
01
ff
00
ff
00
00
00
00
ff
fd
01
00
00
00
ff
00
01
00
00
00
00
ff
00
00
01
00
ff
00
ff
01
01
01
00
00
ff
02
01
ff
00
fd
00
fe
00
ff
00
00
ff
ff
ff
01
01
ff
ff
00
fe
00
00
02
00
ff
01
01
00
00
ff
00
fe
00
fd
01
00
ff
00
00
01
01
00
ff
00
02
ff
00
01
ff
00
ff
01
00
ff
ff
00
00
00
ff
00
02
02
ff
fe
00
fe
ff
ff
00
00
00
01
01
ff
01
02
ff
00
01
00
ff
fe
00
00
00
03
ff
ff
00
ff
01
01
01
02
00
ff
ff
ff
00
01
00
ff
00
02
ff
00
ff
00
00
ff
00
00
01
ff
01
fd
00
00
00
01
00
00
00
00
00
ff
02
00
00
01
01
01
ff
00
00
01
ff
00
ff
ff
01
01
00
01
01
00
ff
01
01
00
00
00
00
ff
00
01
00
01
00
00
ff
ff
01
00
ff
ff
00
01
00
00
00
00
00
01
ff
ff
ff
00
00
ff
ff
01
00
02
00
00
00
fd
01
00
00
01
ff
01
00
ff
fe
00
ff
ff
00
01
01
ff
01
ff
fc
01
ff
00
ff
00
00
ff
00
00
00
00
fd
ff
00
fd
ff
ff
ff
00
02
ff
00
01
00
02
00
ff
00
00
01
00
01
00
ff
02
00
01
00
00
00
fd
01
01
00
02
01
fe
ff
ff
00
01
ff
ff
01
00
ff
fe
00
00
01
ff
fe
01
ff
00
01
ff
00
00
ff
00
01
00
ff
00
01
fe
ff
ff
00
01
00
01
00
00
00
00
ff
ff
01
00
ff
00
ff
00
ff
ff
00
00
ff
00
ff
01
00
00
ff
fe
01
00
01
00
00
00
fd
01
02
00
00
ff
01
00
ff
00
fd
01
00
00
fe
00
00
00
00
00
00
00
01
ff
ff
00
00
00
01
ff
ff
ff
01
00
ff
00
01
01
00
fe
00
ff
00
ff
fe
00
01
00
00
00
00
01
00
ff
fe
01
00
01
00
01
00
00
ff
ff
01
01
01
00
00
02
01
00
01
ff
01
00
fe
00
00
ff
00
00
00
ff
00
ff
01
ff
ff
00
00
01
ff
ff
00
00
ff
00
ff
ff
ff
00
00
ff
00
03
00
01
00
00
01
ff
00
ff
00
ff
ff
00
00
00
00
02
00
00
01
00
00
00
00
00
ff
00
ff
ff
01
00
01
fe
00
00
00
00
ff
00
00
00
02
fd
00
01
00
00
ff
00
fe
00
01
fe
00
fe
00
00
00
00
fe
03
ff
00
01
00
00
fe
00
01
ff
01
01
fe
00
00
00
fd
01
01
ff
00
00
00
ff
01
fe
ff
01
00
fe
00