00
00
fe
00
00
01
ff
ff
01
00
00
00
00
00
00
ff
01
00
00
ff
ff
00
00
00
00
ff
00
fc
01
fe
ff
00
01
01
fe
00
00
01
01
01
ff
00
01
00
00
00
00
00
ff
01
01
01
00
00
00
00
02
00
00
01
00
ff
00
01
ff
ff
00
00
ff
ff
00
01
fe
01
00
ff
ff
ff
00
00
01
00
01
00
ff
ff
02
00
ff
00
00
00
00
00
00
ff
01
01
00
00
00
fe
ff
ff
00
00
00
ff
fd
ff
ff
01
00
01
fe
00
ff
01
00
00
00
ff
00
00
ff
ff
ff
02
ff
02
fd
01
00
00
00
ff
ff
00
fe
00
ff
01
00
00
ff
ff
ff
01
01
ff
fe
fe
00
00
00
fe
ff
01
01
01
ff
fe
00
01
00
00
ff
00
00
00
ff
00
00
00
fd
00
ff
02
ff
01
00
00
00
01
01
01
00
00
fe
fe
02
ff
fe
00
01
01
ff
ff
02
00
00
00
ff
00
00
01
fe
ff
ff
01
ff
00
00
01
00
fe
00
01
00
00
01
ff
00
ff
00
ff
ff
fe
01
01
00
01
00
01
01
00
00
00
01
00
00
ff
01
01
ff
ff
00
ff
00
00
00
01
00
00
00
00
02
02
ff
00
fe
00
00
00
00
ff
00
ff
01
ff
ff
00
ff
ff
01
00
02
ff
ff
00
01
ff
00
00
01
fe
00
00
00
00
01
00
fd
01
ff
fe
00
00
00
ff
01
00
00
01
00
ff
02
ff
04
01
ff
01
00
00
01
01
00
fd
00
01
ff
01
ff
01
ff
00
01
00
00
02
00
00
00
00
fd
01
00
00
fe
01
00
00
00
fe
ff
00
00
01
00
00
00
01
00
02
00
00
00
00
01
ff
01
fe
01
00
01
02
ff
01
00
01
fe
01
00
00
fc
00
ff
00
00
00
01
00
fe
00
fe
00
01
00
ff
ff
00
00
00
ff
03
00
00
00
02
01
ff
00
00
00
00
00
00
00
01
01
00
ff
00
ff
fe
01
00
00
ff
04
00
ff
00
01
01
00
ff
01
00
ff
00
00
00
ff
00
01
fe
01
00
00
01
00
fe
00
00
00
fd
ff
ff
00
00
00
ff
01
00
00
01
00
fe
00
01
02
00
ff
01
02
ff
00
00
ff
01
ff
00
fe
00
ff
fe
02
fe
01
ff
00
00
00
00
00
fe
00
00
fe
02
00
ff
01
fd
01
ff
ff
ff
ff
01
ff
01
ff
ff
00
01
ff
ff
fc
01
03
ff
00
fe
ff
01
00
00
ff
02
fd
00
fe
00
01
fe
02
01
00
ff
00
ff
00
00
01
00
00
ff
01
00
00
ff
00
00
ff
01
ff
00
ff
00
fe
00
ff
ff
01
01
00
ff
00
00
00
00
00
00
00
ff
00
01
00
ff
00
ff
ff
01
ff
ff
00
00
00
00
00
00
00
01
02
00
ff
00
01
ff
00
00
00
fe
ff
00
fe
ff
01
01
00
00
ff
00
00
00
01
00
01
00
ff
ff
00
00
fe
00
ff
00
01
00
00
00
00
01
00
00
fe
00
00
fd
00
01
ff
00
00
00
00
00
00
00
00
00
01
01
01
01
00
00
ff
ff
00
ff
01
00
00
01
00
00
00
01
00
ff
ff
ff
01
ff
01
ff
01
ff
00
00
00
00
ff
00
ff
00
01
fe
00
ff
00
01
01
00
01
01
ff
00
ff
ff
01
ff
00
00
01
00
ff
fb
ff
00
00
00
01
fc
fe
00
02
03
00
00
00
02
00
00
ff
ff
00
00
fe
01
ff
00
00
01
ff
00
ff
ff
ff
01
ff
01
fe
00
01
fe
02
00
00
00
00
01
fd
00
fe
ff
01
fe
ff
fe
00
01
00
01
01
ff
00
00
00
00
00
ff
ff
00
00
ff
00
02
00
00
00
ff
00
00
fe
fe
ff
01
02
ff
00